[PAD]
[UNK]
[CLS]
[SEP]
[MASK]
<unused0>
<unused1>
<unused2>
<unused3>
<unused4>
<unused5>
<unused6>
<unused7>
<unused8>
<unused9>
 
!
"
#
$
%
&
'
(
)
*
+
,
-
.
/
0
1
2
3
4
5
6
7
8
9
:
;
<
=
>
?
@
A
B
C
D
E
F
G
H
I
J
K
L
M
N
O
P
Q
R
S
T
U
V
W
X
Y
Z
[
\
]
^
_
`
a
b
c
d
e
f
g
h
i
j
k
l
m
n
o
p
q
r
s
t
u
v
w
x
y
z
{
|
}
~
¡
£
¥
§
©
«
¬
®
°
±
·
»
À
Á
Ä
Å
Æ
Ç
È
É
Í
Î
Ó
Ö
×
Ø
Ú
Ü
Þ
ß
à
á
â
ã
ä
å
æ
ç
è
é
ê
ë
ì
í
î
ï
ð
ñ
ò
ó
ô
õ
ö
÷
ø
ù
ú
û
ü
ý
þ
Ā
ā
ă
ą
ć
Č
č
Đ
đ
ē
ĕ
ė
ę
ě
ğ
ĩ
ī
İ
ı
Ł
ł
ń
ň
ŋ
Ō
ō
ő
œ
ř
Ś
ś
Ş
ş
Š
š
ţ
ť
ũ
Ū
ū
ŭ
ų
ż
Ž
ž
ƒ
ơ
ư
ǁ
ǎ
ǐ
ǒ
ǔ
ș
ț
ɐ
ɑ
ɒ
ɔ
ɕ
ə
ɛ
ɟ
ɡ
ɣ
ɦ
ɨ
ɪ
ɫ
ɯ
ɲ
ɹ
ɾ
ʁ
ʂ
ʃ
ʉ
ʊ
ʋ
ʌ
ʎ
ʏ
ʑ
ʒ
ʔ
ʕ
ʻ
ʼ
ʾ
ʿ
ˀ
ˈ
ˌ
ː
̀
́
̃
̄
̈
̝
̞
̥
̩
̪
̯
͡
Ά
Α
Β
Γ
Δ
Ε
Ζ
Η
Θ
Ι
Κ
Λ
Μ
Ν
Ξ
Ο
Π
Ρ
Σ
Τ
Υ
Φ
Χ
Ψ
Ω
ά
έ
ή
ί
α
β
γ
δ
ε
ζ
η
θ
ι
κ
λ
μ
ν
ξ
ο
π
ρ
ς
σ
τ
υ
φ
χ
ψ
ω
ό
ύ
ώ
І
А
Б
В
Г
Д
Е
Ж
З
И
К
Л
М
Н
О
П
Р
С
Т
У
Ф
Х
Ц
Ч
Ш
Э
Ю
Я
а
б
в
г
д
е
ж
з
и
й
к
л
м
н
о
п
р
с
т
у
ф
х
ц
ч
ш
щ
ъ
ы
ь
э
ю
я
ё
і
ї
ј
њ
ћ
ў
қ
ү
ә
ө
Ա
Հ
ա
ե
ի
կ
մ
յ
ն
ո
ս
տ
ր
ւ
ְ
ִ
ֵ
ֶ
ַ
ָ
ֹ
ּ
ׁ
א
ב
ג
ד
ה
ו
ז
ח
ט
י
כ
ל
ם
מ
ן
נ
ס
ע
פ
צ
ק
ר
ש
ת
ء
آ
أ
إ
ئ
ا
ب
ة
ت
ث
ج
ح
خ
د
ذ
ر
ز
س
ش
ص
ض
ط
ظ
ع
غ
ـ
ف
ق
ك
ل
م
ن
ه
و
ى
ي
َ
ُ
ِ
ّ
ْ
پ
چ
ک
گ
ہ
ۇ
ی
ە
ं
अ
क
ख
ग
च
ज
ट
ण
त
द
ध
न
प
ब
भ
म
य
र
ल
व
श
ष
स
ह
ा
ि
ी
ु
े
ो
्
ব
র
া
ি
্
દ
ર
્
க
ச
ட
த
ன
ப
ம
ய
ர
ல
வ
ா
ி
ு
ை
்
ు
ග
ය
ර
ල
ව
්
ා
ි
ො
ก
ข
ค
ง
จ
ช
ซ
ญ
ณ
ด
ต
ถ
ท
ธ
น
บ
ป
ผ
พ
ฟ
ภ
ม
ย
ร
ล
ว
ศ
ษ
ส
ห
อ
ะ
ั
า
ิ
ี
ื
ุ
ู
เ
แ
โ
ใ
ไ
็
่
้
์
ํ
་
ག
ང
བ
མ
འ
ར
ལ
ས
ི
ུ
ེ
ོ
က
င
တ
န
ပ
မ
ရ
လ
ာ
ိ
ု
ေ
့
း
်
ြ
ა
ბ
გ
დ
ე
ვ
ზ
თ
ი
კ
ლ
მ
ნ
ო
პ
რ
ს
ტ
უ
ფ
ქ
შ
ძ
ხ
ᄂ
ᄅ
ᄇ
ᄉ
ᄋ
ក
ជ
ន
ប
ម
រ
ស
ា
្
ᠠ
ᠡ
ᠢ
ᠣ
ᠤ
ᠥ
ᠨ
ᠩ
ᠪ
ᠬ
ᠭ
ᠮ
ᠯ
ᠰ
ᠲ
ᠳ
ᠴ
ᠵ
ᠶ
ᠷ
ᡝ
ᡠ
ᡤ
ᡥ
ᡳ
ḍ
Ḥ
ḥ
ṃ
ṅ
ṇ
ṛ
ṣ
ṭ
ẓ
ạ
ả
ầ
ậ
ắ
ế
ề
ễ
ệ
ị
ọ
ố
ồ
ộ
ờ
ỹ
ἀ
ἄ
Ἀ
ἐ
Ἰ
ὐ
ὶ
ῆ
ῖ
ῦ
‐
–
—
―
‖
‘
’
“
”
„
†
‡
•
‰
′
※
‿
⁄
€
←
↑
→
↓
↦
⇒
⇔
∀
∂
∈
∑
−
∖
∗
∘
√
∞
∠
∧
∨
∩
∪
∴
∶
∼
≈
≒
≔
≠
≡
≤
≥
≦
≧
≪
≫
⊂
⊆
⊕
⊗
⊿
⋅
⋯
─
━
│
┃
┏
┓
┗
┛
┣
┫
┳
┼
╋
█
░
▒
■
□
▲
△
▶
▼
▽
◆
◇
○
◎
●
◯
★
☆
☉
♀
♂
♠
♡
♣
♥
♦
♪
♭
♯
⚫
✕
✩
❤
⟨
⟩
⬛
⬜
、
。
〃
々
〆
〇
〈
〉
《
》
「
」
『
』
【
】
〒
〔
〕
〜
〝
〟
ぁ
あ
ぃ
い
ぅ
う
ぇ
え
ぉ
お
か
が
き
ぎ
く
ぐ
け
げ
こ
ご
さ
ざ
し
じ
す
ず
せ
ぜ
そ
ぞ
た
だ
ち
ぢ
っ
つ
づ
て
で
と
ど
な
に
ぬ
ね
の
は
ば
ぱ
ひ
び
ぴ
ふ
ぶ
ぷ
へ
べ
ぺ
ほ
ぼ
ぽ
ま
み
む
め
も
ゃ
や
ゅ
ゆ
ょ
よ
ら
り
る
れ
ろ
ゎ
わ
ゐ
ゑ
を
ん
゙
゚
ゝ
ゞ
゠
ァ
ア
ィ
イ
ゥ
ウ
ェ
エ
ォ
オ
カ
ガ
キ
ギ
ク
グ
ケ
ゲ
コ
ゴ
サ
ザ
シ
ジ
ス
ズ
セ
ゼ
ソ
ゾ
タ
ダ
チ
ヂ
ッ
ツ
ヅ
テ
デ
ト
ド
ナ
ニ
ヌ
ネ
ノ
ハ
バ
パ
ヒ
ビ
ピ
フ
ブ
プ
ヘ
ベ
ペ
ホ
ボ
ポ
マ
ミ
ム
メ
モ
ャ
ヤ
ュ
ユ
ョ
ヨ
ラ
リ
ル
レ
ロ
ヮ
ワ
ヰ
ヱ
ヲ
ン
ヴ
ヵ
ヶ
・
ー
ヽ
ㇰ
ㇱ
ㇷ
ㇺ
ㇻ
ㇼ
一
丁
七
万
丈
三
上
下
不
与
丑
且
丕
世
丘
丙
业
东
丞
両
並
个
中
丰
串
丸
丹
主
丼
乂
乃
久
之
乍
乎
乏
乐
乖
乗
乙
九
乞
也
乭
乱
乳
乾
亀
了
予
争
事
二
于
云
互
五
井
亘
亙
些
亜
亞
亡
亢
交
亥
亦
亨
享
京
亭
亮
亰
亳
亶
人
什
仁
仄
仇
今
介
仍
仏
仔
仕
他
仗
付
仙
仝
代
令
以
仮
仰
仲
件
价
任
份
企
伊
伍
伎
伏
伐
休
会
伝
伯
伴
伶
伸
伺
似
伽
佃
但
佇
位
低
住
佐
佑
体
何
佗
余
佚
佛
作
佞
佟
你
佩
佰
佳
併
佶
佼
使
侃
來
侈
例
侍
侑
侘
供
依
侠
価
侭
侮
侯
侵
侶
便
係
促
俄
俊
俎
俑
俗
俘
俚
保
俟
俠
信
俣
修
俯
俱
俳
俵
俶
俸
俺
倅
倉
個
倍
們
倒
倖
候
倚
借
倣
値
倦
倩
倪
倫
倭
倶
倹
倻
偃
假
偈
偉
偏
偕
做
停
健
偰
偲
側
偵
偶
偽
傀
傅
傍
傑
傕
傘
備
催
傭
傲
傳
債
傷
傾
僅
僉
僊
働
像
僑
僕
僖
僚
僧
僭
僻
儀
儁
儂
億
儋
儒
儘
儚
償
儡
優
儲
儺
儼
兀
允
元
兄
充
兆
兇
先
光
克
兌
免
兎
児
兒
兔
兗
党
兜
入
內
全
兩
兪
八
公
六
兮
共
兵
其
具
典
兼
冀
内
円
冉
冊
册
再
冏
冑
冒
冗
写
军
冠
冢
冤
冥
冨
冪
冬
冰
冲
冴
冶
冷
凄
准
凉
凋
凌
凍
凛
凜
凝
几
凡
処
凧
凪
凮
凰
凱
凶
凸
凹
出
函
刀
刁
刃
分
切
刈
刊
刎
刑
列
初
判
別
利
到
刳
制
刷
券
刹
刺
刻
剃
則
削
剋
剌
前
剖
剛
剝
剣
剤
剥
剪
副
剰
剱
割
創
剽
剿
劃
劇
劈
劉
劍
劔
力
功
加
劣
助
努
劫
劭
励
労
効
劾
勁
勃
勅
勇
勉
勐
勒
動
勗
勘
務
勛
勝
勞
募
勢
勤
勧
勰
勲
勳
勺
勾
勿
匁
匂
包
匈
匍
匐
匕
化
北
匙
匝
匠
匡
匣
匪
匯
匹
区
医
匿
區
十
千
升
午
卉
半
卍
华
卑
卒
卓
協
南
単
博
卜
卞
占
卡
卦
卬
卯
印
危
即
却
卵
卷
卸
卿
厄
厓
厘
厚
厝
原
厠
厥
厦
厨
厩
厭
厲
厳
去
县
参
參
又
叉
及
友
双
反
収
叔
取
受
叙
叛
叟
叡
叢
口
古
句
叩
只
叫
召
叭
可
台
叱
史
右
叶
号
司
吃
各
合
吉
吊
同
名
后
吏
吐
向
吒
君
吝
吞
吟
吠
否
吧
含
吳
吸
吹
吻
吼
吽
吾
呂
呆
呈
呉
告
呑
呟
周
呪
呰
味
呵
呻
呼
命
咀
咄
咆
咋
和
咎
咒
咤
咥
咨
咩
咫
咬
咲
咳
咸
咽
哀
品
哈
哉
員
哥
哨
哩
哪
哭
哮
哲
哺
唄
唆
唇
唐
唖
唯
唱
唸
唾
啄
商
問
啓
啖
啜
啼
喀
喃
善
喆
喇
喉
喊
喋
喘
喚
喜
喝
喧
喩
喪
喫
喬
喰
営
嗅
嗇
嗚
嗜
嗟
嗣
嗤
嗽
嗾
嘆
嘉
嘔
嘗
嘘
嘩
嘯
嘱
嘲
嘴
噂
噌
噛
器
噪
噴
噶
噺
嚆
嚇
嚙
嚢
嚥
嚮
嚴
嚼
囀
囁
囂
囃
囚
四
回
因
团
団
囮
困
囲
図
围
固
国
圀
圃
國
圍
圏
園
圓
圖
團
土
圧
在
圭
地
圳
场
址
坂
均
坊
坎
坏
坐
坑
坡
坤
坦
坩
坪
垂
型
垓
垠
垢
垣
垪
埃
埋
城
埒
埔
埕
埜
域
埠
埴
埵
執
培
基
埼
堀
堂
堅
堆
堕
堝
堡
堤
堪
堯
堰
報
場
堵
堺
塀
塁
塊
塑
塔
塗
塘
塙
塚
塞
塡
塢
塩
填
塵
塹
塼
塾
境
墓
増
墜
墟
墨
墩
墳
墺
墻
墾
壁
壇
壊
壌
壕
壙
壟
壢
壩
士
壬
壮
壯
声
壱
売
壷
壹
壺
壽
変
夏
夔
夕
外
夙
多
夜
夢
夥
大
天
太
夫
夭
央
失
夷
夾
奄
奇
奈
奉
奎
奏
奐
契
奔
奕
套
奘
奚
奠
奢
奥
奧
奨
奪
奭
奮
女
奴
奸
好
如
妃
妄
妊
妍
妓
妖
妙
妤
妥
妨
妬
妲
妹
妻
妾
姉
始
姐
姑
姓
委
姚
姜
姥
姦
姨
姪
姫
姶
姻
姿
威
娃
娑
娘
娜
娟
娠
娥
娩
娯
娶
娼
婁
婆
婉
婕
婚
婢
婦
婷
婺
婿
媒
媚
媛
媧
媽
嫁
嫉
嫌
嫡
嫦
嫩
嬀
嬉
嬌
嬛
嬢
嬪
嬬
嬰
嬲
嬴
子
孔
孕
字
存
孚
孛
孜
孝
孟
季
孤
学
孩
孫
孵
學
孺
宅
宇
守
安
宋
完
宍
宏
宕
宗
官
宙
定
宛
宜
宝
実
客
宣
室
宥
宦
宮
宰
害
宴
宵
家
宸
容
宿
寂
寄
寅
密
寇
富
寒
寓
寔
寛
寝
察
寡
實
寧
寨
審
寫
寬
寮
寳
寵
寶
寸
寺
対
寿
封
専
射
将
將
專
尉
尊
尋
對
導
小
少
尓
尔
尖
尚
尤
尭
就
尸
尹
尺
尻
尼
尽
尾
尿
局
屁
居
屆
屈
届
屋
屍
屎
屏
屑
屓
展
属
屠
屡
層
履
屬
屯
山
屹
岌
岐
岑
岔
岛
岡
岨
岩
岬
岱
岳
岷
岸
峅
峙
峠
峡
峨
峪
峯
峰
峴
島
峻
崇
崋
崎
崑
崔
崖
崗
崙
崚
崧
崩
嵌
嵐
嵜
嵩
嵬
嵯
嶋
嶌
嶝
嶠
嶮
嶷
嶺
嶼
嶽
巌
巍
巒
巖
川
州
巡
巣
工
左
巧
巨
巫
差
己
已
巳
巴
巷
巻
巽
巾
市
布
帆
希
帖
帙
帚
帛
帝
帥
師
席
帯
帰
帳
帶
帷
常
帽
幀
幅
幇
幌
幕
幟
幡
幢
幣
干
平
年
并
幸
幹
幻
幼
幽
幾
广
庁
広
庄
庇
床
序
底
庖
店
庚
府
庠
度
座
庫
庭
庵
庶
康
庸
庾
廂
廃
廆
廈
廉
廊
廓
廖
廞
廟
廠
廢
廣
廨
廩
廬
廳
延
廷
建
廻
廼
廿
弁
弄
弇
弉
弊
弋
弌
式
弐
弑
弓
弔
引
弖
弗
弘
弛
弟
弥
弦
弧
弩
弯
弱
弴
張
強
弼
弾
彅
彊
彌
彎
当
彗
彙
彝
彡
形
彤
彦
彧
彩
彪
彫
彬
彭
彰
影
彷
役
彼
彿
往
征
徂
径
待
徊
律
後
徐
徒
従
得
徘
從
徠
御
徧
徨
復
循
徭
微
徳
徴
德
徹
徽
心
必
忌
忍
忖
志
忘
忙
応
忠
快
忱
念
忻
忽
怒
怖
怜
思
怠
怡
急
性
怨
怪
怯
恂
恃
恆
恋
恍
恐
恒
恕
恢
恣
恤
恥
恨
恩
恪
恫
恬
恭
息
恰
恵
悉
悌
悍
悔
悛
悟
悠
患
悦
悧
悩
悪
悲
悳
悴
悶
悸
悼
情
惇
惑
惕
惚
惜
惟
惠
惡
惣
惧
惨
惰
惲
想
惹
惺
愁
愃
愈
愉
愍
意
愕
愚
愛
感
愧
愴
愷
愼
愾
慄
慇
慈
慊
態
慌
慎
慕
慟
慢
慣
慧
慨
慮
慰
慶
慾
憂
憊
憎
憐
憑
憔
憚
憤
憧
憩
憫
憬
憲
憶
憺
憾
懃
懇
應
懋
懌
懐
懣
懲
懸
懺
懼
懿
戀
戈
戊
戌
戍
戎
成
我
戒
戔
或
战
戚
戟
戡
戦
戩
截
戮
戯
戰
戴
戸
戻
房
所
扁
扇
扈
扉
手
才
扎
打
払
托
扮
扱
扶
批
扼
承
技
抄
抉
把
抑
抒
投
抗
折
抜
択
披
抱
抵
抹
押
抽
担
拇
拉
拌
拍
拐
拒
拓
拗
拘
拙
招
拜
拝
拠
拡
括
拭
拮
拯
拱
拳
拵
拶
拷
拼
拾
拿
持
挂
指
按
挑
挙
挟
挨
挫
振
挹
挺
挽
挾
挿
捉
捌
捏
捐
捕
捗
捜
捧
捨
捩
据
捲
捷
捺
捻
掃
授
掌
掏
排
掖
掘
掛
掟
掠
採
探
掣
接
控
推
掩
措
掬
掲
掴
掻
掾
揃
揄
揆
揉
描
提
揖
揚
換
握
揮
援
揶
揺
損
搗
搜
搦
搬
搭
携
搾
摂
摘
摩
摯
摸
摺
撃
撈
撒
撓
撚
撞
撤
撥
撫
播
撮
撰
撲
撹
撼
擁
擊
操
擔
據
擢
擦
擬
擱
擲
擾
攀
攘
攝
攣
攪
攫
攬
支
收
攷
攸
改
攻
放
政
故
效
敎
敏
救
敖
敗
教
敞
敢
散
敦
敬
数
敲
整
敵
敷
數
斂
斃
文
斉
斌
斎
斐
斑
斗
料
斛
斜
斟
斡
斤
斥
斧
斬
断
斯
新
方
於
施
旁
旅
旋
旌
族
旗
旛
无
既
日
旦
旧
旨
早
旬
旭
旱
旺
旻
昂
昆
昇
昉
昊
昌
明
昏
易
昔
昕
星
映
春
昧
昨
昭
是
昱
昴
昵
昶
昼
晁
時
晃
晄
晋
晏
晒
晗
晞
晟
晤
晦
晧
晨
晩
普
景
晰
晴
晶
智
暁
暇
暈
暉
暎
暐
暑
暖
暗
暘
暠
暢
暦
暫
暮
暴
暹
曁
曄
曇
曉
曖
曙
曜
曝
曠
曦
曰
曲
曳
更
書
曹
曺
曼
曽
曾
替
最
會
月
有
朋
服
朐
朔
朕
朗
望
朝
期
朦
朧
木
未
末
本
札
朮
朱
朴
朶
机
朽
杁
杉
李
杏
材
村
杓
杖
杜
杞
束
条
杢
杣
来
杭
杮
杯
杰
東
杲
杳
杵
杷
杼
松
板
枇
枋
析
枕
林
枚
果
枝
枠
枡
枢
枯
枳
架
枷
枻
柄
柊
柏
某
柑
染
柔
柘
柚
柞
柩
柯
柱
柳
柴
柵
査
柾
柿
栁
栂
栃
栄
栓
栖
栗
栞
校
栢
栩
株
栲
栴
核
根
格
栽
桁
桂
桃
框
案
桐
桑
桓
桔
桜
桝
桟
桧
桶
桿
梁
梃
梅
梓
梔
梗
條
梟
梢
梦
梧
梨
梯
械
梱
梳
梵
梶
梼
棄
棉
棋
棍
棒
棕
棗
棘
棚
棟
棠
棣
棧
森
棲
棹
棺
椀
椅
椋
植
椎
椏
椒
椙
椚
椛
検
椥
椰
椴
椿
楊
楓
楔
楕
楚
楞
楠
楡
楢
楨
楪
楫
業
楮
楯
楳
極
楷
楸
楼
楽
概
榊
榎
榑
榕
榛
榜
榧
榮
榴
槃
槇
構
槌
槍
槎
槐
槓
様
槙
槨
槻
槽
槿
樂
樅
樊
樋
樓
樗
標
樟
模
樣
権
横
樫
樵
樸
樹
樺
樽
橄
橇
橈
橋
橘
橙
機
橡
橿
檀
檄
檎
檗
檜
檢
檣
檬
檮
檸
檻
櫂
櫃
櫓
櫚
櫛
櫟
櫨
櫻
欄
欅
權
欒
欖
欝
欠
次
欣
欧
欲
欺
欽
款
歆
歇
歌
歎
歐
歓
歙
止
正
此
步
武
歩
歪
歯
歳
歴
歸
死
歿
殆
殉
殊
残
殖
殘
殤
殯
殲
殴
段
殷
殺
殻
殿
毀
毅
毋
毌
母
毎
毒
毓
比
毖
毗
毘
毛
毫
毬
毯
氈
氏
氐
民
気
氣
水
氷
永
氾
汀
汁
求
汎
汐
汕
汗
汚
汜
汝
汞
江
池
汨
汪
汰
汲
汴
汶
決
汽
汾
沁
沂
沃
沅
沈
沌
沐
沓
沔
沖
沙
沛
没
沢
沫
沮
沱
河
沸
油
治
沼
沽
沾
沿
況
泄
泉
泊
泌
泓
法
泗
泛
泡
波
泣
泥
注
泪
泰
泳
洋
洒
洗
洙
洛
洞
津
洩
洪
洮
洱
洲
洵
洸
活
洽
派
流
浄
浅
浙
浚
浜
浣
浦
浩
浪
浬
浮
浴
海
浸
涂
涅
涇
消
涌
涎
涙
涛
涜
涪
涯
液
涵
涸
涼
涿
淀
淄
淆
淇
淋
淑
淘
淞
淡
淤
淦
淨
淫
淮
深
淳
淵
混
淸
淹
淺
添
清
渇
済
渉
渋
渓
渕
渙
渚
減
渝
渟
渠
渡
渣
渤
渥
渦
温
渫
測
渭
港
游
渺
渾
湊
湍
湖
湘
湛
湣
湧
湫
湯
湾
湿
満
溌
源
準
溜
溝
溟
溢
溥
溧
溪
溯
溶
溺
滁
滄
滅
滇
滉
滋
滎
滑
滓
滔
滕
滝
滞
滬
滲
滴
滸
滾
滿
漁
漂
漆
漉
漏
漑
演
漕
漠
漢
漣
漫
漬
漱
漲
漳
漸
漿
潁
潅
潔
潘
潜
潞
潟
潤
潭
潮
潯
潰
潴
潼
澁
澂
澄
澎
澗
澤
澪
澱
澳
澹
激
濁
濃
濊
濘
濟
濠
濡
濤
濫
濬
濮
濯
濰
濱
濵
濾
瀆
瀉
瀋
瀏
瀑
瀕
瀘
瀚
瀛
瀝
瀞
瀟
瀧
瀨
瀬
瀾
灌
灘
灝
灣
灤
火
灯
灰
灸
灼
災
炉
炊
炎
炒
炙
炫
炬
炭
炮
炯
炳
炸
点
為
烈
烏
烙
烟
烹
烽
焉
焔
焙
焚
無
焦
焰
然
焼
煉
煌
煎
煕
煙
煜
煤
煥
照
煩
煬
煮
煽
熈
熊
熔
熕
熙
熟
熨
熱
熲
熹
熾
燁
燃
燈
燎
燐
燒
燕
燗
營
燥
燦
燧
燭
燮
燵
燻
燼
燾
燿
爆
爛
爪
爬
爭
爰
爲
爵
父
爺
爻
爽
爾
牆
片
版
牌
牒
牘
牙
牛
牝
牟
牡
牢
牧
物
牲
特
牽
犀
犁
犂
犍
犠
犢
犬
犯
状
狂
狄
狐
狒
狗
狙
狛
狡
狢
狩
独
狭
狸
狼
狽
猊
猗
猛
猜
猟
猥
猩
猪
猫
献
猴
猶
猷
猾
猿
獄
獅
獏
獠
獣
獨
獪
獰
獲
獺
玄
率
玉
王
玖
玩
玫
玲
玻
珀
珂
珈
珉
珊
珍
珎
珠
珣
珥
珪
班
現
球
琅
理
琉
琚
琛
琢
琥
琦
琨
琪
琬
琮
琰
琲
琳
琴
琵
琶
琺
琿
瑀
瑁
瑋
瑕
瑗
瑙
瑚
瑛
瑜
瑞
瑟
瑠
瑣
瑤
瑩
瑪
瑯
瑰
瑳
瑶
瑾
璃
璇
璉
璋
璐
璘
璜
璞
璟
璧
璩
璮
環
璽
瓊
瓌
瓏
瓔
瓘
瓚
瓜
瓠
瓢
瓦
瓶
甄
甌
甑
甕
甘
甚
甜
生
産
甥
甦
用
甫
甯
田
由
甲
申
电
男
甸
町
画
界
畏
畑
畔
留
畜
畝
畠
畢
略
畦
番
畫
異
畳
當
畷
畸
畿
疆
疇
疋
疎
疏
疑
疝
疣
疫
疱
疲
疵
疸
疹
疼
疽
疾
病
症
痍
痒
痔
痕
痘
痙
痛
痢
痣
痩
痰
痴
痺
瘍
瘡
瘢
瘤
瘴
瘻
療
癇
癌
癒
癖
癡
癩
癪
癬
癲
癸
発
登
發
白
百
的
皆
皇
皋
皎
皐
皓
皖
皝
皮
皴
皷
皺
皿
盂
盃
盆
盈
益
盎
盒
盗
盛
盞
盟
盡
監
盤
盧
盪
目
盲
直
相
盾
省
眈
眉
看
県
眞
真
眠
眩
眷
眸
眺
眼
着
睡
睢
督
睦
睨
睫
睺
睾
睿
瞋
瞑
瞞
瞥
瞬
瞭
瞰
瞳
瞻
瞼
瞽
瞿
矗
矛
矜
矢
矣
知
矧
矩
短
矮
矯
石
砂
砒
研
砕
砥
砦
砧
砲
破
砺
砿
硝
硫
硬
硯
碁
碇
碌
碍
碑
碓
碕
碗
碧
碩
確
碼
碾
磁
磊
磋
磐
磔
磚
磡
磧
磨
磯
磾
礁
礎
礒
礦
礪
礫
礬
示
礼
社
祀
祁
祇
祈
祉
祐
祓
祖
祗
祚
祜
祝
神
祟
祠
祢
祥
票
祭
祷
祺
祿
禁
禄
禅
禊
禍
禎
福
禕
禦
禧
禪
禮
禰
禱
禹
禺
禽
禾
禿
秀
私
秉
秋
科
秒
秘
租
秣
秤
秦
秩
称
移
稀
稈
程
稍
税
稔
稗
稙
稚
稜
稟
稠
種
稱
稲
稷
稼
稽
稿
穀
穂
穆
積
穎
穏
穐
穢
穣
穫
穰
穴
究
穹
空
穿
突
窃
窄
窈
窒
窓
窘
窟
窠
窩
窪
窮
窯
窺
竃
竄
竇
竈
立
站
竜
竝
竟
章
竣
童
竦
竪
端
競
竹
竺
竿
笄
笈
笊
笏
笑
笘
笙
笛
笞
笠
笥
符
第
笵
笹
筆
筈
等
筋
筌
筍
筏
筐
筑
筒
答
策
筝
筠
筥
筧
筮
筰
筵
筺
箆
箇
箋
箍
箏
箒
箔
箕
算
箙
箚
管
箪
箭
箱
箴
箸
節
篁
範
篆
篇
築
篋
篝
篠
篤
篥
篩
篭
篳
簀
簑
簒
簗
簡
簪
簫
簸
簾
簿
籃
籌
籍
籐
籔
籟
籠
籤
籬
米
籾
粁
粂
粉
粋
粍
粒
粕
粗
粘
粛
粟
粤
粥
粧
粮
粲
粳
精
糀
糊
糎
糖
糜
糞
糟
糠
糧
糯
糸
糺
系
糾
紀
紂
約
紅
紆
紇
紊
紋
納
紐
純
紗
紘
紙
級
紛
素
紡
索
紫
紬
紮
累
細
紳
紹
紺
絁
終
絃
組
絅
絆
経
結
絞
絡
絢
絣
給
絨
統
絲
絳
絵
絶
絹
綏
經
継
続
綜
綝
綫
綬
維
綰
綱
網
綴
綸
綺
綻
綽
綾
綿
緊
緋
総
緑
緒
緘
線
緝
緞
締
編
緩
緬
緯
練
緻
縁
縄
縅
縊
縋
縒
縛
縞
縣
縦
縫
縮
縯
縷
縹
縺
總
績
繁
繆
繇
繊
繋
繍
織
繕
繚
繞
繡
繪
繫
繭
繰
繹
繼
纂
纈
續
纏
纐
纒
纓
级
线
缶
缺
罐
网
罔
罕
罠
罪
罫
置
罰
署
罵
罷
罹
羂
羅
羆
羈
羊
羌
美
羞
羣
群
羨
義
羯
羲
羹
羽
翁
翅
翊
翌
翎
習
翔
翟
翠
翡
翦
翫
翰
翳
翹
翻
翼
耀
老
考
者
耆
而
耐
耕
耗
耘
耳
耶
耽
耿
聊
聖
聘
聚
聞
聟
聡
聯
聰
聲
聳
聴
聶
職
聾
肆
肇
肉
肋
肌
肖
肘
肚
肛
肝
股
肢
肥
肩
肪
肯
肱
育
肴
肺
胃
胆
背
胎
胖
胚
胞
胡
胤
胥
胱
胴
胸
能
脂
脅
脆
脇
脈
脊
脚
脛
脩
脱
脳
脹
脾
腋
腎
腐
腑
腓
腔
腕
腟
腫
腰
腱
腸
腹
腺
腿
膀
膂
膏
膚
膜
膝
膠
膣
膨
膳
膵
膺
膾
膿
臀
臂
臆
臈
臍
臏
臓
臘
臙
臚
臣
臥
臧
臨
自
臭
至
致
臺
臼
舁
舂
舅
與
興
舉
舊
舌
舍
舎
舐
舒
舗
舘
舛
舜
舞
舟
舩
航
舫
般
舳
舵
舶
舷
船
艀
艇
艘
艙
艤
艦
艪
艮
良
艱
色
艶
艸
艾
芋
芍
芒
芙
芝
芥
芦
芬
芭
芮
芯
花
芳
芷
芸
芹
芻
芽
芾
苅
苑
苓
苔
苗
苛
苞
苟
若
苦
苧
苫
英
苺
苻
苾
茂
范
茄
茅
茉
茎
茗
茘
茜
茨
茫
茯
茱
茲
茶
茸
茹
荀
荃
草
荊
荏
荒
荘
荷
荻
荼
莆
莇
莉
莊
莎
莒
莘
莚
莞
莢
莫
莱
莽
菁
菅
菊
菌
菏
菓
菖
菜
菟
菩
菫
華
菰
菱
菲
菴
萃
萄
萇
萊
萌
萍
萎
萠
萢
萩
萬
萱
萸
萼
落
葆
葉
葎
著
葛
葡
董
葦
葫
葬
葭
葯
葱
葵
葺
蒋
蒐
蒔
蒙
蒜
蒟
蒲
蒴
蒸
蒻
蒼
蒿
蓄
蓉
蓋
蓑
蓬
蓮
蓼
蔀
蔑
蔓
蔗
蔚
蔡
蔣
蔦
蔬
蔭
蔵
蔽
蕁
蕃
蕉
蕊
蕎
蕗
蕙
蕨
蕩
蕪
蕭
蕾
薀
薄
薇
薊
薔
薗
薙
薛
薦
薨
薩
薪
薫
薬
薮
薯
藁
藉
藍
藏
藝
藤
藩
藪
藷
藹
藺
藻
蘂
蘆
蘇
蘊
蘋
蘚
蘭
虎
虐
虔
處
虚
虜
虞
號
虢
虫
虱
虹
虻
蚊
蚌
蚕
蚤
蚩
蛆
蛇
蛉
蛋
蛍
蛎
蛙
蛛
蛟
蛤
蛭
蛮
蛯
蛸
蛹
蛾
蜀
蜂
蜃
蜉
蜘
蜚
蜜
蜥
蜴
蜷
蜻
蝉
蝋
蝎
蝕
蝗
蝙
蝠
蝣
蝦
蝮
蝴
蝶
蝸
蝿
螂
融
螢
螺
蟄
蟇
蟠
蟲
蟷
蟹
蟻
蠅
蠍
蠕
蠟
蠡
蠢
蠣
蠱
血
衆
行
衍
衒
術
街
衙
衛
衝
衞
衡
衢
衣
表
衰
衷
衾
衿
袁
袂
袈
袋
袍
袖
袞
袢
被
袱
袴
裁
裂
装
裏
裔
裕
補
裟
裡
裨
裳
裴
裸
製
裾
褄
複
褌
褐
褒
褚
褥
褪
褫
褶
褻
襄
襖
襞
襟
襦
襲
襴
襷
西
要
覃
覆
覇
見
規
視
覗
覚
覧
親
覲
観
覺
觀
角
解
触
言
訂
訃
計
訊
訌
討
訓
託
記
訛
訝
訟
訢
訣
訥
訪
設
許
訳
訴
訶
診
註
証
詁
詈
詐
詔
評
詛
詞
詠
詡
詢
詣
試
詧
詩
詫
詭
詮
詰
話
該
詳
詹
誂
誅
誇
誉
誌
認
誑
誓
誕
誘
語
誠
誡
誣
誤
誥
誦
誨
說
説
読
誰
課
誹
誼
誾
調
諄
談
請
諌
諍
諏
諒
論
諜
諡
諤
諦
諧
諫
諭
諮
諱
諶
諷
諸
諺
諾
謀
謁
謂
謄
謎
謐
謔
謖
謗
謙
講
謝
謡
謨
謬
謳
謹
證
識
譙
譚
譜
警
譬
譯
議
譲
譴
護
譽
讀
讃
變
讐
讒
讓
讖
讚
谷
谿
豁
豆
豊
豐
豚
象
豪
豫
豹
豺
貂
貊
貌
貘
貝
貞
負
財
貢
貧
貨
販
貪
貫
責
貯
貰
貳
貴
貶
買
貸
費
貼
貿
賀
賁
賂
賃
賄
資
賈
賊
賎
賑
賓
賛
賜
賞
賠
賢
賣
賤
賦
質
賭
賴
購
賽
賾
贄
贅
贇
贈
贊
贋
贔
贖
贛
赛
赤
赦
赫
走
赳
赴
起
超
越
趙
趣
趨
足
趺
趾
跋
跏
跗
跛
距
跡
跨
跪
路
跳
践
踊
踏
踝
踞
踪
踰
踵
蹂
蹄
蹇
蹊
蹙
蹟
蹠
蹲
蹴
蹶
躁
躅
躇
躊
躍
躑
躓
躙
身
躬
躯
躰
躱
躾
車
軋
軌
軍
軒
軛
軟
転
軸
軻
軼
軽
軾
較
載
輌
輒
輓
輔
輕
輛
輜
輝
輦
輩
輪
輯
輳
輸
輻
輿
轄
轅
轆
轉
轍
轟
轡
轢
车
轨
辛
辜
辞
辟
辣
辨
辭
辮
辯
辰
辱
農
辺
辻
込
辿
迂
迄
迅
迎
运
近
返
迥
迦
迪
迫
迭
述
迴
迷
迹
追
退
送
逃
逅
逆
逍
透
逐
逓
途
逖
逗
這
通
逝
逞
速
造
逡
逢
連
逮
週
進
逵
逸
逹
逼
遁
遂
遅
遇
遊
運
遍
過
遐
道
達
違
遙
遜
遠
遡
遣
遥
適
遭
遮
遵
遷
選
遹
遺
遼
遽
避
邀
邁
邂
邃
還
邇
邈
邉
邊
邏
邑
邕
邢
那
邦
邨
邪
邯
邱
邳
邵
邸
邽
邾
郁
郃
郅
郊
郎
郗
郝
郞
郡
郢
郤
部
郭
郯
郴
郵
郷
都
鄂
鄒
鄙
鄢
鄧
鄭
鄯
鄰
鄱
鄲
鄴
酈
酉
酊
酋
酌
配
酎
酒
酔
酘
酛
酢
酥
酩
酪
酬
酵
酷
酸
醂
醇
醉
醍
醐
醒
醗
醜
醤
醪
醫
醴
醸
采
釈
釉
釋
里
重
野
量
釐
金
釗
釘
釜
針
釣
釦
釧
釵
鈍
鈎
鈑
鈔
鈕
鈞
鈴
鈷
鈿
鉄
鉅
鉈
鉉
鉋
鉗
鉛
鉞
鉢
鉤
鉦
鉱
鉾
銀
銃
銅
銈
銑
銓
銕
銖
銘
銚
銛
銜
銭
鋏
鋒
鋤
鋪
鋭
鋲
鋳
鋸
鋺
鋼
錆
錐
錘
錚
錠
錢
錣
錦
錨
錫
錬
錮
錯
録
鍋
鍍
鍔
鍛
鍬
鍮
鍵
鍼
鍾
鎌
鎔
鎖
鎗
鎚
鎧
鎬
鎭
鎮
鎰
鏃
鏑
鏞
鏡
鐐
鐔
鐘
鐙
鐚
鐡
鐵
鐸
鑁
鑑
鑒
鑓
鑚
鑢
鑰
鑲
鑼
鑽
鑾
鑿
铁
長
长
門
閂
閃
閇
閉
開
閏
閑
閒
間
閔
閖
閘
関
閣
閤
閥
閨
閩
閬
閭
閲
閻
閼
閾
闇
闊
闍
闐
闓
闔
闕
闖
闘
關
闡
闢
阜
阪
阮
阯
防
阳
阻
阿
陀
陂
附
际
陋
降
限
陘
陛
陝
陞
陟
院
陣
除
陥
陪
陰
陳
陴
陵
陶
陸
険
陽
隅
隆
隈
隊
隋
階
随
隔
隕
隗
隘
隙
際
障
隠
隣
隧
隨
隴
隷
隸
隻
隼
雀
雁
雄
雅
集
雇
雉
雋
雌
雍
雎
雑
雕
雖
雙
雛
雜
雞
離
難
雨
雪
雫
雰
雲
零
雷
雹
電
需
霄
霆
震
霊
霍
霓
霖
霙
霜
霞
霧
霰
露
霸
霹
靂
靄
靈
靑
青
靖
静
靜
非
靠
靡
面
革
靫
靭
靱
靳
靴
靺
靼
鞄
鞅
鞆
鞋
鞍
鞏
鞘
鞜
鞠
鞨
鞭
鞮
鞴
韃
韋
韓
韜
韮
音
韶
韻
響
頁
頂
頃
項
順
須
頊
頌
預
頑
頒
頓
頗
領
頚
頠
頡
頤
頬
頭
頴
頷
頸
頻
頼
頽
顆
題
額
顎
顒
顔
顕
顗
願
顛
類
顥
顧
顯
顰
風
颪
颯
颱
飄
飛
飜
食
飡
飢
飫
飯
飲
飴
飼
飽
飾
餃
餅
餉
養
餌
餐
餓
餘
餞
餡
館
餮
饅
饉
饋
饌
饒
饕
饗
首
馗
香
馥
馨
馬
馭
馮
馳
馴
駁
駄
駅
駆
駈
駐
駒
駕
駙
駝
駱
駿
騎
騏
騒
験
騙
騨
騫
騭
騰
騸
驃
驍
驒
驕
驗
驚
驛
驢
驤
驥
驪
骨
骸
髄
髏
髑
體
高
髙
髣
髦
髪
髭
髯
髴
髷
髻
鬆
鬘
鬚
鬢
鬣
鬨
鬱
鬼
魁
魂
魃
魄
魅
魍
魎
魏
魑
魔
魚
魯
鮎
鮑
鮒
鮓
鮨
鮪
鮫
鮭
鮮
鯉
鯖
鯛
鯨
鯰
鯱
鯵
鰊
鰍
鰐
鰓
鰤
鰭
鰯
鰹
鰺
鰻
鰾
鱈
鱒
鱗
鳥
鳩
鳰
鳳
鳴
鳶
鴇
鴈
鴉
鴎
鴛
鴦
鴨
鴫
鴻
鵄
鵜
鵝
鵞
鵠
鵡
鵬
鵯
鵰
鵲
鵺
鶉
鶏
鶚
鶯
鶴
鶻
鷄
鷗
鷦
鷯
鷲
鷹
鷺
鸕
鸚
鸞
鹵
鹸
鹹
鹽
鹿
麁
麒
麓
麗
麝
麟
麦
麩
麴
麵
麹
麺
麻
麾
麿
黃
黄
黌
黍
黎
黑
黒
黔
默
黙
黛
點
黨
黴
鼈
鼎
鼓
鼠
鼬
鼻
齊
齋
齎
齟
齢
齧
齬
龍
龐
龔
龕
龗
龙
龜
가
각
간
강
개
거
건
게
경
계
고
공
과
관
광
교
구
국
군
권
규
그
근
금
기
길
김
꽃
나
남
내
녀
년
노
누
뉴
는
니
다
단
당
대
덕
데
도
독
동
두
드
들
디
라
람
랑
래
러
레
로
루
리
마
만
말
면
명
모
무
문
물
미
민
바
박
방
배
백
번
별
병
보
복
본
부
불
비
사
산
삼
상
새
생
서
석
선
설
성
세
소
손
송
수
숙
순
스
승
시
식
신
씨
아
안
애
야
양
어
에
여
역
연
영
예
오
옥
와
왕
요
용
우
운
울
원
위
유
윤
으
은
을
의
이
인
일
임
자
장
재
전
정
제
조
족
종
주
준
중
즈
지
진
차
창
채
천
철
청
초
총
최
출
치
카
코
키
타
태
터
통
투
트
파
판
포
표
프
피
필
하
학
한
함
합
해
행
향
허
혁
현
혜
호
홍
화
황
회
훈
희
히
﨑
﨟
︎
️
𠮷
󠄀
󠄁
##ワ
##ー
##c
##l
##u
##b
##し
##い
##く
##つ
##か
##人
##ト
##リ
##ミ
##ン
##グ
##ア
##ニ
##メ
##i
##r
##e
##s
##t
##a
##装
##フ
##モ
##死
##ネ
##ス
##岩
##り
##船
##や
##旅
##瞭
##レ
##ブ
##シ
##ョ
##マ
##イ
##ル
##る
##パ
##ッ
##コ
##な
##ざ
##わ
##ず
##治
##p
##o
##d
##ェ
##ホ
##間
##ノ
##ロ
##サ
##バ
##ビ
##オ
##エ
##テ
##ク
##ベ
##瑠
##ボ
##n
##そ
##う
##ド
##市
##故
##タ
##チ
##蕨
##御
##ヒ
##デ
##木
##清
##P
##C
##I
##K
##J
##立
##ャ
##ジ
##ラ
##ザ
##y
##R
##S
##日
##本
##代
##理
##高
##結
##界
##プ
##好
##ム
##ィ
##ポ
##ケ
##坂
##学
##飛
##g
##m
##下
##奉
##っ
##こ
##よ
##述
##ナ
##・
##ゴ
##ヨ
##助
##届
##け
##所
##菱
##ぜ
##他
##ピ
##ュ
##ヘ
##ハ
##ウ
##ゼ
##略
##之
##ろ
##ち
##ょ
##た
##苦
##h
##野
##カ
##種
##上
##田
##北
##A
##T
##M
##龍
##ダ
##W
##別
##お
##と
##O
##G
##韓
##延
##昭
##大
##使
##館
##前
##k
##厄
##派
##存
##ガ
## 
##聖
##打
##キ
##守
##2
##z
##断
##鉄
##中
##自
##粛
##に
##走
##津
##島
##丈
##達
##屋
##力
##ォ
##家
##入
##産
##ん
##が
##ぶ
##す
##ま
##然
##祖
##H
##○
##子
##持
##駅
##N
##職
##南
##ソ
##陽
##覚
##れ
##庁
##決
##用
##橋
##村
##互
##だ
##次
##客
##さ
##ゲ
##瀬
##時
##戦
##車
##体
##水
##馬
##幡
##殿
##嬉
##一
##創
##禅
##典
##ツ
##せ
##浜
##荘
##f
##E
##菜
##叱
##明
##塚
##j
##じ
##側
##座
##え
##利
##Z
##太
##郎
##ズ
##徳
##労
##q
##V
##U
##検
##顎
##穂
##泰
##町
##平
##方
##茜
##涼
##党
##ペ
##セ
##阪
##新
##き
##ギ
##歴
##分
##素
##気
##原
##げ
##帰
##追
##ό
##輝
##雅
##見
##言
##事
##沢
##ヴ
##ヌ
##տ
##版
##漫
##知
##聞
##編
##伝
##的
##業
##め
##草
##ば
##料
##常
##娘
##寿
##郡
##臣
##併
##整
##w
##商
##売
##安
##ぱ
##教
##み
##ふ
##疲
##山
##川
##ご
##矢
##鳴
##ヤ
##ぐ
##作
##ァ
##L
##F
##取
##合
##も
##困
##養
##幸
##び
##富
##脚
##含
##の
##工
##読
##活
##動
##剤
##引
##単
##5
##1
##習
##生
##起
##B
##月
##曜
##関
##筆
##頭
##づ
##渉
##室
##ユ
##ゥ
##む
##為
##真
##辻
##X
##行
##歌
##ぽ
##形
##光
##込
##漢
##後
##港
##紐
##芯
##墾
##湖
##有
##宿
##記
##局
##貫
##冷
##ね
##純
##盛
##漁
##諏
##v
##ゆ
##茶
##線
##集
##射
##能
##喬
##確
##賢
##統
##軍
##附
##ゅ
##士
##七
##藤
##潤
##연
##仏
##官
##香
##像
##々
##備
##隊
##型
##調
##ど
##俗
##祭
##病
##背
##久
##地
##世
##振
##進
##ら
##あ
##書
##等
##刺
##江
##興
##寺
##駐
##基
##建
##て
##切
##妃
##屯
##☆
##声
##蓮
##塩
##課
##風
##和
##政
##権
##仙
##敵
##ヂ
##麻
##呂
##琛
##程
##洗
##к
##焼
##及
##対
##朋
##応
##席
##少
##供
##開
##発
##物
##配
##鞭
##迫
##接
##ฟ
##幾
##ぎ
##吉
##ぞ
##ᄋ
##炭
##刑
##謁
##回
##房
##総
##券
##x
##乳
##校
##緑
##ひ
##井
##則
##史
##全
##元
##尼
##三
##膝
##輸
##沙
##ゃ
##美
##住
##赴
##亡
##越
##ゾ
##踊
##部
##色
##段
##紀
##正
##当
##薬
##桜
##号
##思
##廉
##師
##薙
##桁
##援
##食
##話
##仁
##直
##評
##手
##男
##周
##設
##定
##系
##ü
##満
##鑑
##帖
##団
##論
##態
##ぬ
##賀
##星
##哲
##近
##畑
##乗
##城
##彪
##ء
##吸
##智
##金
##友
##毛
##佐
##国
##駆
##式
##脇
##彌
##闘
##出
##価
##穏
##郷
##曲
##口
##小
##多
##ほ
##渓
##電
##差
##昔
##奐
##ぷ
##績
##戯
##雪
##専
##支
##ぃ
##志
##古
##岸
##執
##會
##民
##主
##宝
##返
##ぼ
##瑩
##痩
##坊
##崩
##厥
##弥
##呼
##崎
##沼
##精
##炎
##彩
##場
##憲
##点
##D
##離
##震
##須
##伍
##8
##推
##省
##居
##研
##Y
##指
##令
##葉
##谷
##殺
##豪
##邸
##域
##倉
##付
##状
##璞
##兵
##者
##함
##待
##台
##概
##甫
##説
##組
##深
##制
##心
##閏
##縄
##末
##西
##向
##扶
##塾
##紋
##潰
##竜
##約
##衣
##影
##文
##傳
##実
##岡
##耕
##除
##丸
##続
##過
##弾
##登
##費
##飯
##端
##管
##輌
##道
##布
##幌
##府
##恭
##公
##社
##機
##負
##通
##内
##彼
##値
##女
##石
##吏
##求
##最
##絵
##獄
##樹
##着
##茂
##靴
##坡
##衆
##半
##선
##規
##英
##訴
##訟
##刀
##夏
##索
##ヶ
##成
##峰
##即
##栗
##虫
##笑
##र
##庵
##流
##免
##脈
##齋
##ן
##探
##鎮
##音
##節
##染
##甲
##園
##境
##襟
##街
##難
##洪
##介
##相
##抜
##炸
##叙
##会
##翔
##〔
##巻
##根
##転
##移
##晶
##放
##添
##'
##砂
##丘
##-
##東
##先
##楽
##森
##黄
##妻
##萩
##位
##Q
##3
##4
##獣
##裏
##象
##發
##投
##髪
##क
##宮
##製
##参
##褚
##諸
##撤
##温
##床
##親
##護
##特
##異
##年
##遺
##邦
##霜
##診
##華
##篤
##照
##院
##繋
##孝
##担
##任
##林
##連
##蔵
##字
##ğ
##抑
##蒲
##淳
##胎
##袖
##鳥
##渡
##京
##破
##量
##施
##良
##銃
##斗
##譚
##恋
##雄
##阻
##伊
##誘
##滝
##詠
##割
##路
##楓
##限
##還
##球
##敷
##掌
##邁
##貧
##瑞
##旧
##惜
##忍
##缶
##后
##裕
##熱
##初
##塞
##在
##来
##庸
##青
##協
##贊
##ヲ
##べ
##ɟ
##盤
##植
##又
##尾
##訓
##海
##継
##斜
##ぴ
##證
##隆
##査
##員
##塔
##廃
##錬
##0
##販
##署
##謙
##火
##印
##宇
##紙
##品
##暮
##筋
##醜
##姿
##科
##顕
##今
##翠
##庫
##州
##昼
##饒
##咋
##議
##黎
##期
##運
##狐
##希
##提
##煮
##健
##皇
##列
##長
##息
##阿
##寒
##恵
##逆
##謝
##義
##面
##識
##裂
##解
##空
##潮
##里
##(
##波
##何
##味
##貴
##王
##蝶
##目
##現
##保
##役
##極
##賎
##克
##鼎
##花
##覇
##堀
##乃
##飼
##害
##逸
##給
##致
##鈴
##閣
##鰺
##浴
##槽
##信
##胡
##語
##遅
##、
##造
##従
##壁
##奨
##미
##я
##被
##図
##熊
##膵
##細
##也
##芸
##去
##अ
##鼻
##可
##福
##度
##功
##郵
##瑾
##錦
##霊
##繕
##κ
##慎
##應
##委
##族
##外
##暖
##隙
##性
##壽
##留
##彦
##=
##夫
##奏
##角
##鍋
##若
##右
##緒
##牧
##藍
##逃
##都
##璃
##汲
##礼
##牙
##繰
##符
##武
##妲
##己
##е
##予
##算
##堂
##厳
##馗
##経
##戒
##冥
##倶
##弱
##詣
##姫
##禁
##厚
##敬
##受
##営
##反
##弁
##腕
##微
##妙
##標
##土
##м
##爺
##再
##兼
##撮
##莉
##未
##店
##批
##紹
##以
##条
##散
##吹
##二
##超
##陰
##娑
##察
##永
##峠
##奈
##術
##枇
##梨
##枝
##神
##敏
##沿
##訳
##著
##尺
##臨
##緩
##欽
##祝
##血
##帝
##遷
##技
##溜
##芝
##祐
##身
##扱
##豊
##覧
##朝
##降
##戸
##氏
##』
##髭
##働
##紫
##数
##其
##源
##仔
##透
##袋
##泊
##資
##朽
##θ
##斎
##培
##果
##競
##窯
##充
##材
##마
##頌
##非
##鬼
##嶼
##庭
##構
##務
##霧
##타
##名
##奴
##比
##操
##企
##蒼
##退
##脱
##法
##問
##頃
##陀
##倭
##灯
##演
##乙
##独
##纏
##《
##徒
##舞
##落
##儀
##隧
##痰
##同
##松
##陸
##湯
##監
##揮
##肢
##玉
##甚
##尉
##병
##狂
##暴
##遣
##羅
##農
##凪
##並
##撃
##旨
##禍
##講
##重
##堤
##ა
##트
##増
##滬
##노
##無
##採
##ส
##綱
##柏
##墓
##司
##級
##稜
##泉
##裔
##疾
##百
##이
##渕
##淵
##呉
##玄
##籠
##亮
##陵
##却
##蝿
##遠
##拉
##変
##第
##県
##苗
##魔
##領
##愛
##休
##埃
##匡
##襲
##計
##白
##姉
##折
##天
##践
##忠
##呪
##雲
##輩
##穴
##築
##湾
##張
##斑
##ï
##考
##粤
##柳
##嶷
##峻
##育
##傑
##母
##黒
##優
##裁
##早
##匹
##副
##弘
##尋
##観
##駒
##鹿
##歯
##望
##替
##郭
##재
##候
##俊
##で
##へ
##救
##洞
##屠
##善
##完
##許
##枠
##税
##於
##浸
##湊
##激
##嶋
##藻
##躍
##池
##広
##于
##亀
##薦
##毎
##板
##珠
##尻
##桃
##環
##栃
##」
##腎
##雨
##蘭
##勲
##/
##骸
##舎
##膳
##荒
##将
##昌
##茎
##容
##卿
##珍
##摩
##鎗
##]
##糸
##便
##賂
##旦
##那
##寝
##菌
##贄
##炉
##郁
##牌
##巾
##章
##審
##題
##斧
##棚
##倒
##은
##宵
##疇
##径
##奥
##據
##枢
##門
##顒
##首
##普
##益
##云
##雑
##順
##哉
##浦
##測
##鐘
##称
##犯
##報
##画
##晴
##飲
##療
##康
##終
##參
##呑
##ـ
##碑
##始
##寇
##廟
##吾
##絆
##質
##想
##酔
##鮮
##瓦
##澤
##關
##諭
##融
##獅
##録
##博
##帯
##褒
##釣
##鳳
##洋
##擁
##器
##番
##戈
##楢
##夕
##防
##繁
##様
##命
##焦
##就
##例
##翁
##芙
##蓉
##厨
##掃
##浩
##軟
##尚
##虎
##伯
##羽
##溶
##勒
##唐
##篇
##剣
##貨
##중
##仮
##皿
##軽
##欧
##賞
##巨
##竣
##止
##敦
##柿
##蹟
##碧
##捨
##帆
##拝
##描
##底
##曹
##夜
##儒
##擲
##速
##快
##旋
##砕
##円
##表
##邊
##低
##訪
##偉
##舟
##個
##你
##六
##私
##鳩
##率
##寄
##蟇
##軸
##宅
##猫
##米
##糟
##გ
##朗
##赤
##餃
##由
##案
##薫
##搭
##載
##脂
##罪
##轄
##焰
##儡
##潟
##共
##씨
##蛙
##岐
##誕
##拠
##警
##燼
##圧
##核
##掘
##絶
##膜
##范
##秀
##占
##願
##招
##享
##視
##坐
##奇
##孫
##河
##幅
##掛
##窩
##誠
##砦
##ร
##관
##鏡
##般
##捕
##茅
##胃
##侍
##凝
##縁
##ு
##銅
##済
##赦
##摺
##竺
##掲
##革
##は
##景
##俳
##艇
##召
##譜
##春
##賦
##曾
##,
##浅
##ё
##咲
##〜
##獲
##左
##姜
##埜
##勉
##莒
##鈕
##服
##ぢ
##急
##ศ
##歩
##彙
##腔
##楷
##逐
##置
##拳
##蹴
##央
##壩
##檻
##甘
##週
##甥
##骨
##喜
##鵬
##埠
##陣
##要
##叟
##蛇
##奕
##庄
##残
##悟
##衞
##跡
##臓
##兄
##錘
##瞬
##幕
##糧
##磚
##老
##遊
##眠
##勢
##停
##奪
##嵩
##櫓
##佛
##詫
##杜
##墨
##ө
##邑
##♡
##梁
##輔
##濱
##梅
##⬜
##什
##畜
##劫
##芽
##財
##鄭
##縛
##麗
##涿
##烏
##揚
##蜜
##念
##狭
##譲
##短
##耐
##俶
##김
##縦
##у
##締
##悲
##暗
##銀
##仰
##串
##加
##鯛
##荊
##扇
##尤
##処
##旗
##沈
##玲
##減
##騎
##展
##忌
##杉
##勝
##刈
##牟
##鎖
##毒
##化
##群
##承
##潜
##艦
##狗
##悪
##選
##丁
##柵
##靖
##亭
##類
##得
##頂
##父
##準
##僧
##琉
##紘
##押
##剥
##交
##苅
##粒
##湿
##突
##輪
##藩
##葬
##猛
##慰
##慾
##溝
##舷
##仲
##剛
##瞳
##苑
##片
##括
##皆
##儂
##拓
##箱
##失
##似
##栄
##四
##賜
##網
##買
##巌
##蛍
##鎌
##恕
##具
##豚
##唱
##両
##崔
##告
##恩
##慈
##雷
##叢
##狼
##凧
##伏
##屍
##唯
##隠
##慶
##菊
##授
##貌
##足
##秦
##払
##圭
##改
##欄
##俘
##陳
##婁
##伸
##覆
##認
##)
##γ
##洲
##補
##誌
##幹
##희
##杯
##誰
##塗
##険
##雇
##광
##鶏
##坑
##脳
##宗
##針
##閃
##ိ
##鰭
##6
##7
##غ
##叡
##胴
##ぁ
##枚
##蟹
##詩
##栞
##滋
##帳
##盟
##廻
##聡
##帽
##毅
##倍
##複
##斬
##蝋
##逢
##ب
##必
##疑
##稿
##枡
##游
##晨
##泗
##紅
##ς
##桂
##搾
##鋲
##導
##尊
##樽
##厩
##棄
##懸
##眼
##季
##巣
##糖
##如
##披
##?
##⇒
##珪
##爆
##余
##杏
##櫻
##鼓
##荻
##亞
##鋒
##椎
##囚
##粕
##凱
##冨
##ל
##嘆
##с
##肉
##ن
##燈
##η
##乱
##航
##楼
##砒
##樂
##覗
##幼
##ゐ
##綿
##壱
##ʃ
##朔
##麺
##曉
##魚
##律
##翅
##固
##意
##削
##簪
##仕
##ゑ
##情
##棟
##弟
##注
##侯
##鋼
##И
##孔
##杣
##М
##裳
##修
##鴻
##請
##리
##崗
##寸
##萬
##歆
##判
##積
##縫
##颯
##聯
##蕃
##斐
##ы
##嘉
##翊
##宜
##範
##峡
##各
##璋
##嵜
##尭
##婦
##笥
##蒸
##衛
##拵
##丹
##筑
##堅
##症
##哥
##陝
##瑚
##樋
##依
##弓
##証
##沖
##抽
##隅
##穀
##р
##窓
##徠
##卵
##申
##浄
##縮
##夢
##鵜
##ぇ
##募
##沃
##写
##羹
##硬
##撓
##磯
##威
##塊
##餘
##不
##א
##堰
##朴
##惕
##收
##爪
##遼
##柑
##堆
##糾
##學
##累
##抄
##薯
##貂
##腸
##係
##פ
##梟
##勘
##梵
##磨
##灘
##垓
##鶴
##酒
##祥
##睦
##試
##復
##昆
##垣
##埼
##做
##蔑
##往
##鴨
##徴
##籾
##舜
##魏
##鷹
##傍
##嗣
##당
##↓
##圏
##鉉
##虹
##八
##蛋
##懲
##栖
##唄
##挹
##ή
##조
##兗
##물
##況
##託
##笠
##横
##垂
##恒
##促
##溢
##挾
##馴
##没
##挙
##欣
##宏
##辞
##升
##漬
##強
##倣
##峯
##柴
##芹
##漉
##株
##鋳
##衿
##梓
##暫
##羯
##欠
##濬
##荷
##医
##宸
##双
##懐
##幇
##銘
##攻
##劇
##岳
##胸
##錫
##廷
##豆
##ি
##倫
##我
##慢
##格
##遵
##娯
##禿
##抗
##泌
##籍
##æ
##模
##濠
##准
##凰
##顔
##σ
##硝
##楚
##ပ
##控
##迅
##皮
##ф
##ئ
##棒
##塘
##窟
##冶
##杭
##絲
##蕭
##暦
##稼
##櫛
##嶌
##斉
##ヅ
##児
##究
##隣
##逗
##討
##因
##礒
##圓
##柾
##釉
##辺
##蜂
##氣
##म
##;
##嬪
##瀨
##練
##額
##恥
##眉
##λ
##了
##吊
##猪
##軌
##媒
##İ
##滅
##誉
##敗
##区
##傾
##ر
##貞
##嘴
##賛
##媚
##ә
##屏
##紆
##映
##亨
##О
##狩
##芳
##擬
##창
##勇
##封
##滇
##9
##耳
##旻
##架
##螺
##織
##薄
##ắ
##換
##坪
##盃
##煎
##妹
##菲
##眷
##亜
##詰
##綴
##責
##犬
##侠
##机
##濟
##際
##婚
##ㇷ
##゚
##_
##漏
##脩
##醒
##槍
##의
##埔
##潭
##框
##渚
##炯
##陶
##惑
##豹
##憩
##昂
##”
##畝
##~
##灣
##藝
##도
##揃
##銭
##灤
##昇
##玩
##拘
##疹
##椅
##消
##殷
##稲
##静
##漠
##粉
##渤
##曰
##滄
##ො
##煥
##柱
##徹
##詮
##戎
##才
##濃
##그
##層
##束
##梯
##欲
##綜
##遂
##―
##据
##聴
##句
##惟
##ใ
##掩
##ᠤ
##冴
##檢
##壊
##泥
##沂
##槎
##鈎
##示
##感
##腹
##稚
##熾
##噺
##肆
##詳
##扉
##氷
##蓋
##験
##密
##淑
##旛
##寛
##唇
##桑
##窒
##亦
##號
##呆
##霞
##預
##項
##噴
##揉
##僖
##燕
##鮒
##砺
##鋭
##埴
##頓
##訂
##燃
##囲
##抹
##閉
##刻
##刊
##ᡠ
##疱
##ぅ
##椿
##꽃
##鶯
##錐
##壹
##梢
##ხ
##т
##臥
##翼
##崖
##油
##ե
##閭
##逖
##五
##乂
##瀧
##怒
##豫
##違
##ヱ
##α
##傷
##데
##榎
##騒
##琴
##憑
##裸
##宣
##諒
##ी
##凸
##捜
##弗
##汽
##亰
##冠
##萄
##箭
##談
##↑
##壺
##頼
##魯
##痴
##泳
##傘
##稔
##闇
##烈
##穢
##腐
##叉
##羂
##و
##ज
##兮
##君
##秩
##収
##酸
##狛
##孟
##주
##偏
##牛
##蓬
##宋
##浮
##馨
##諮
##癖
##鴫
##鱈
##麿
##循
##晃
##争
##響
##樵
##千
##与
##І
##薩
##杵
##魁
##危
##丙
##毓
##送
##棘
##更
##寧
##魂
##「
##兔
##鎧
##燒
##국
##ʊ
##叩
##ぺ
##爽
##宴
##懇
##吐
##ك
##翻
##柄
##戻
##麹
##肩
##九
##邪
##嬲
##砲
##粘
##黙
##乏
##暑
##慧
##梔
##猿
##卒
##挽
##触
##嘔
##盲
##債
##杁
##綾
##腰
##蒐
##傭
##勤
##份
##瑪
##矩
##俵
##畳
##х
##Ю
##但
##忙
##穐
##耶
##舗
##恐
##筐
##途
##泣
##哈
##爾
##徐
##干
##л
##廓
##餐
##灰
##苓
##丞
##戚
##暉
##秘
##維
##磐
##矯
##殊
##麒
##貢
##爵
##廼
##巡
##耗
##掾
##玖
##履
##巴
##祚
##禧
##緋
##ί
##嶽
##斯
##辨
##鎬
##哀
##д
##♪
##蔭
##疫
##咬
##崇
##บ
##棋
##袈
##穿
##璮
##飴
##琳
##飾
##桐
##督
##借
##絞
##混
##נ
##เ
##鉱
##鍾
##啓
##耀
##秋
##易
##槌
##정
##緯
##夔
##曙
##閖
##ぉ
##姪
##畿
##灼
##搗
##喪
##踏
##喰
##至
##祺
##弧
##்
##臭
##:
##虚
##礁
##佚
##焔
##排
##購
##喫
##桟
##勅
##征
##班
##股
##ρ
##納
##蟲
##策
##褐
##且
##童
##醗
##隔
##岬
##鍬
##液
##鉛
##穆
##兩
##契
##澄
##巳
##∼
##鞍
##曇
##國
##釈
##菅
##叶
##閑
##繡
##障
##歳
##薊
##裾
##饗
##眸
##Σ
##甕
##幻
##ε
##曽
##腿
##閥
##俣
##业
##催
##ω
##胤
##จ
##否
##袍
##綺
##露
##천
##悠
##廣
##ˌ
##孚
##碩
##慕
##勾
##ོ
##姓
##賊
##и
##錢
##呈
##暢
##태
##棲
##撒
##篠
##汎
##嫁
##碼
##旭
##箇
##摘
##漲
##癌
##榮
##秉
##均
##邇
##葦
##蹄
##帙
##น
##ֵ
##損
##芬
##叔
##і
##騨
##ㇻ
##지
##冪
##澳
##苞
##拿
##誅
##實
##茉
##貿
##鍵
##貸
##설
##β
##飢
##辰
##鈔
##挿
##ч
##祀
##札
##ב
##蔦
##詞
##輿
##熈
##姚
##დ
##髄
##堪
##鯨
##朱
##騙
##胞
##迷
##碁
##氐
##薪
##凍
##衝
##劃
##근
##卑
##庇
##蜥
##杖
##暁
##函
##禰
##螢
##寮
##郊
##苫
##ล
##瓊
##祈
##并
##榛
##詁
##鞆
##酷
##弦
##栽
##摂
##ม
##隈
##樣
##葛
##璐
##壮
##稽
##罰
##珊
##滑
##漕
##卸
##嵐
##酪
##岱
##鬚
##斌
##妾
##簡
##貝
##焚
##十
##涸
##鴦
##曁
##拍
##肌
##Р
##婆
##浪
##μ
##徽
##丰
##伐
##澱
##đ
##筵
##遍
##經
##佩
##鋸
##י
##愁
##忘
##昏
##ل
##廿
##槨
##刃
##า
##鉤
##轟
##宍
##握
##俠
##餅
##肝
##樫
##階
##熙
##逓
##汁
##→
##掴
##鼠
##涌
##汀
##粗
##冰
##措
##愍
##酵
##憶
##諾
##ბ
##畢
##属
##辛
##尿
##票
##肥
##窪
##謄
##嶺
##≒
##巖
##渠
##伴
##韻
##孤
##患
##穎
##樺
##挑
##溪
##賭
##臧
##銚
##`
##庚
##臼
##効
##貯
##湧
##་
##蒔
##『
##殻
##★
##貼
##昕
##薗
##筒
##ன
##姥
##允
##當
##絢
##喚
##艶
##새
##謎
##砥
##嚢
##瞼
##釜
##尽
##壇
##ع
##殖
##竹
##廠
##處
##縒
##犠
##芍
##儲
##〈
##戊
##磁
##屈
##伎
##凛
##篆
##遥
##簿
##猟
##濤
##顧
##哨
##종
##Г
##腋
##蝗
##惲
##糞
##献
##冑
##ه
##杞
##蒙
##紺
##“
##梃
##冀
##畷
##谿
##誦
##篝
##嬬
##鉢
##峨
##羆
##П
##준
##昶
##怪
##蕊
##痕
##冬
##喝
##壬
##聚
##寂
##虞
##ᠮ
##芦
##挫
##煙
##慮
##麦
##洸
##塵
##檗
##禄
##寅
##〃
##甸
##胆
##侵
##牒
##肋
##蘊
##廬
##敞
##點
##團
##प
##菟
##簾
##魄
##假
##<
##蒜
##"
##$
##柔
##н
##牡
##遭
##頸
##乾
##υ
##彫
##牢
##琶
##璜
##苺
##π
##慣
##趾
##到
##舍
##笛
##憤
##鐐
##ᠠ
##填
##ا
##厭
##梶
##撰
##曼
##淫
##∞
##鯖
##序
##與
##某
##顆
##ɕ
##하
##弄
##寓
##餌
##軒
##丑
##ی
##鞮
##隋
##기
##舌
##來
##榴
##鮫
##ป
##肺
##刷
##趨
##祇
##虐
##س
##雀
##誇
##播
##鱗
##緘
##纂
##մ
##銑
##鰹
##擊
##臺
##舘
##鋏
##피
##賃
##。
##楕
##德
##կ
##屑
##蕪
##嬌
##佑
##ו
##既
##悦
##豐
##秒
##奮
##Ш
##繚
##陂
##拡
##拾
##г
##桓
##鯉
##磊
##卡
##卓
##ด
##С
##ន
##복
##數
##携
##어
##偵
##贇
##煕
##酋
##橘
##腫
##祗
##看
##避
##彭
##堺
##蘇
##彰
##藪
##罠
##ὶ
##挟
##蹠
##п
##●
##塁
##腺
##荼
##菓
##續
##冊
##讃
##鞨
##逝
##硫
##偽
##熟
##衡
##蝮
##揆
##恨
##駈
##드
##鉋
##夷
##嘗
##勳
##壕
##艾
##昱
##승
##삼
##ِ
##誡
##斂
##件
##跋
##迄
##囃
##樓
##跳
##槻
##謂
##劣
##疋
##從
##篩
##涯
##妖
##汶
##幣
##駿
##ά
##迦
##抵
##躬
##械
##ɑ
##箕
##楡
##庶
##兌
##趣
##災
##ช
##槿
##笹
##일
##석
##隼
##該
##袁
##蠡
##ّ
##槇
##כ
##堡
##梗
##膨
##靄
##眞
##銜
##윤
##瓶
##匠
##禎
##疎
##錚
##栓
##猶
##巒
##ο
##ּ
##壌
##紳
##醤
##개
##袢
##濡
##包
##ي
##鸞
##歓
##撈
##縞
##煉
##蕗
##偈
##昴
##巽
##捻
##赫
##誓
##宙
##▽
##絃
##姦
##弼
##凡
##晧
##怡
##吽
##호
##姑
##Н
##頴
##腟
##ֹ
##峴
##毗
##惠
##葵
##Λ
##答
##Ρ
##수
##楨
##×
##榑
##杷
##蜻
##匪
##竪
##偶
##窃
##迪
##弐
##篭
##謨
##臀
##黛
##励
##雫
##汐
##蕎
##曳
##毬
##尖
##ז
##悶
##滞
##향
##迎
##්
##煩
##暇
##ヰ
##扮
##帥
##滿
##勿
##峙
##ˈ
##猩
##帛
##咒
##萇
##스
##宛
##ج
##捷
##塢
##朕
##幽
##儼
##埒
##租
##洛
##龙
##廊
##ə
##贈
##狸
##枕
##儁
##罵
##墳
##.
##숙
##凹
##鑿
##ś
##嵯
##磾
##適
##န
##а
##叛
##需
##屬
##伽
##珀
##ი
##溟
##鷺
##綬
##較
##滴
##稙
##ʋ
##餡
##郞
##ရ
##蜘
##蛛
##्
##傅
##鮓
##頤
##怜
##碕
##憂
##随
##俺
##悩
##粧
##坤
##剌
##Д
##權
##拙
##覃
##羨
##문
##】
##馳
##鈍
##辿
##埋
##堯
##銕
##汾
##膠
##殲
##[
##А
##蛆
##勧
##跨
##东
##鴉
##♥
##款
##凮
##蛸
##藏
##ö
##泓
##繇
##暠
##巫
##圀
##祓
##鞄
##噂
##炳
##З
##翫
##淆
##抉
##肘
##Б
##戍
##冒
##ى
##疏
##頒
##장
##惇
##譙
##巷
##踪
##愉
##掻
##諧
##ப
##犀
##ヵ
##瓜
##彬
##竟
##頻
##襷
##憐
##愼
##衙
##晋
##碗
##յ
##&
##躁
##蝙
##蝠
##菴
##兒
##躯
##尹
##雁
##ᄅ
##惣
##麟
##籐
##璧
##僚
##渭
##산
##伺
##华
##彗
##妄
##杲
##酌
##址
##崑
##皴
##錮
##努
##舒
##盈
##瞻
##淸
##辱
##ώ
##초
##ύ
##袞
##誤
##무
##嘱
##償
##醐
##盗
##黌
##畠
##閘
##錠
##扁
##痢
##乍
##矛
##♀
##恢
##塀
##詐
##祠
##吟
##勺
##區
##淄
##鋪
##้
##怠
##娶
##蓄
##Ф
##漆
##謀
##鉈
##枷
##í
##諫
##蓑
##芒
##徘
##琿
##抱
##櫨
##ة
##ை
##荏
##}
##齢
##舶
##婿
##零
##Α
##珂
##嗤
##瀝
##蔽
##旱
##諜
##對
##拗
##ι
##渝
##駁
##허
##ի
##爛
##喋
##燾
##拭
##趙
##雎
##艸
##霄
##禕
##禮
##圃
##吼
##億
##ე
##靜
##랑
##謹
##萱
##인
##澂
##劉
##ᠷ
##堕
##瘡
##고
##稷
##건
##彊
##蕩
##攬
##□
##猊
##孺
##綸
##午
##∀
##羞
##牘
##涪
##嬢
##繊
##肇
##万
##ַ
##肛
##妊
##櫚
##潔
##琲
##淡
##◎
##疵
##斤
##坩
##敢
##匣
##陥
##嘩
##琰
##訛
##筠
##澗
##註
##卦
##鑼
##毘
##屁
##猴
##แ
##箏
##狙
##兎
##痙
##諱
##杰
##佳
##淀
##餉
##屹
##舳
##寶
##邏
##茹
##緊
##盧
##吒
##ห
##奔
##灸
##В
##蟻
##ע
##嫌
##岌
##垠
##挺
##시
##ั
##猷
##蒿
##철
##梧
##恪
##粋
##舁
##霸
##蔡
##婷
##楯
##條
##鞘
##ю
##賤
##甯
##瑛
##檀
##鷲
##ख
##鵞
##厝
##箸
##ᠯ
##Հ
##匯
##့
##ᠴ
##遮
##>
##攀
##箋
##薮
##殉
##茨
##釘
##咨
##褶
##咄
##魍
##阯
##憧
##위
##鑾
##諡
##楊
##楞
##叫
##渾
##飽
##순
##њ
##ц
##剪
##肴
##紗
##凌
##́
##韶
##煌
##δ
##昊
##駄
##閩
##蘋
##撹
##僕
##่
##龕
##癒
##桶
##距
##총
##з
##ú
##痛
##羌
##絣
##오
##黨
##+
##而
##鮑
##枯
##熹
##亥
##睡
##墜
##邨
##\
##紡
##紛
##畔
##Μ
##우
##柯
##※
##賓
##耆
##垪
##悔
##將
##邃
##釧
##閲
##로
##粲
##崚
##濁
##筈
##炮
##菩
##遡
##£
##에
##鉾
##ψ
##불
##진
##驪
##卯
##沫
##제
##沁
##麾
##俟
##포
##驚
##ר
##擾
##ó
##舛
##┗
##鍛
##ไ
##糀
##შ
##靱
##พ
##ํ
##晟
##瑶
##咸
##燁
##م
##脅
##燭
##麩
##捺
##苻
##盾
##湛
##莘
##县
##椰
##魅
##邢
##酉
##雞
##в
##한
##敎
##轨
##혜
##痘
##餞
##ग
##儚
##蒋
##琵
##撥
##閤
##桿
##摸
##루
##緞
##秤
##葱
##स
##贋
##狄
##勁
##ក
##葡
##莱
##裡
##瓢
##璘
##敖
##瑁
##ถ
##ာ
##墺
##̃
##燮
##ʂ
##ญ
##娜
##寨
##兪
##腱
##瀑
##乭
##愚
##阳
##絹
##금
##단
##析
##捗
##尓
##粂
##蕙
##郯
##나
##차
##是
##岔
##悸
##賈
##葺
##萌
##乎
##έ
##ẓ
##寫
##щ
##纓
##奎
##보
##蝴
##撫
##ה
##ว
##원
##ṣ
##巧
##嘲
##兜
##楠
##蹊
##옥
##ą
##隷
##ش
##ნ
##揺
##ʒ
##斥
##檣
##凄
##ν
##蝉
##个
##ᠲ
##鼈
##柘
##只
##à
##거
##昉
##!
##ʎ
##Ι
##屎
##櫃
##洽
##吧
##嬰
##殴
##ָ
##邱
##兆
##淮
##媽
##楫
##嘯
##怨
##祁
##李
##喘
##冢
##瞥
##遇
##懼
##鰻
##窮
##堵
##皓
##鬱
##罹
##χ
##蠱
##嘘
##攪
##貶
##啜
##拼
##舐
##棺
##隻
##碓
##禾
##애
##奄
##运
##虔
##跗
##蚩
##न
##Î
##哭
##【
##渋
##閒
##寳
##忽
##帷
##撲
##搬
##遐
##踞
##棍
##Я
##諶
##ط
##雛
##澪
##姐
##咽
##采
##゙
##კ
##琮
##宰
##鑚
##腓
##咳
##醍
##縊
##瑗
##捲
##煬
##ɪ
##্
##頑
##б
##汚
##φ
##茗
##ʌ
##萊
##皐
##ง
##婢
##ש
##椒
##媧
##瘤
##旬
##橙
##憎
##恤
##丼
##籤
##濫
##齊
##僑
##闓
##枳
##茄
##枋
##膿
##毖
##ម
##墟
##祿
##해
##禱
##羊
##歙
##梳
##»
##賠
##|
##岑
##琪
##ต
##炊
##讀
##囂
##彝
##ㇺ
##佗
##畦
##ี
##頁
##綏
##배
##鉦
##勰
##喀
##幟
##拷
##á
##杢
##દ
##凜
##−
##儘
##怖
##娥
##忱
##汝
##把
##絡
##垢
##鰾
##択
##竿
##邉
##ز
##洵
##영
##貊
##鵠
##慌
##陘
##騰
##ர
##澁
##즈
##隴
##만
##衾
##按
##남
##椀
##ᄇ
##輦
##攘
##ž
##體
##麓
##涙
##燧
##萎
##酢
##禽
##蝕
##捌
##◯
##偃
##姶
##淘
##ъ
##顛
##褌
##漂
##ษ
##ค
##癲
##啼
##湘
##覲
##요
##濯
##ᡝ
##醸
##瓠
##顯
##篳
##篥
##о
##蔣
##蔓
##서
##尸
##渥
##战
##漿
##燎
##ā
##채
##ξ
##燥
##躰
##粟
##э
##র
##煤
##ְ
##ා
##薔
##汗
##雕
##鐸
##匝
##諺
##翰
##鄰
##모
##韜
##파
##謡
##阜
##駝
##蚕
##ד
##燐
##ि
##疸
##檬
##─
##圳
##棧
##賽
##晩
##프
##苔
##琦
##弊
##這
##爬
##鉞
##鰐
##矜
##Η
##汰
##ო
##襖
##ɐ
##虱
##飡
##僉
##筏
##洙
##喧
##牲
##琅
##翳
##Ä
##笙
##縣
##呵
##姻
##娩
##婺
##橡
##戟
##吞
##Ω
##灌
##礎
##ʔ
##礫
##瑀
##أ
##乞
##공
##ῆ
##踰
##≪
##淇
##炫
##諦
##坎
##衍
##长
##拒
##‐
##酬
##蠍
##鋤
##鎚
##剃
##吃
##军
##ლ
##ذ
##縅
##睿
##甌
##ᠡ
##艤
##邯
##া
##喩
##樊
##佰
##경
##籌
##蟷
##嚼
##滉
##鮭
##騭
##ص
##강
##繭
##辯
##부
##楮
##擢
##懿
##戴
##际
##殘
##≡
##旺
##명
##衢
##漣
##藹
##總
##倹
##อ
##潘
##晏
##雍
##痔
##縹
##董
##贅
##攸
##戌
##역
##胚
##槐
##肯
##揖
##坦
##曠
##齬
##此
##현
##琥
##眺
##雌
##驥
##К
##俄
##壷
##ա
##晒
##硯
##祉
##彧
##逞
##{
##Ц
##逮
##양
##默
##蜀
##閔
##剰
##卬
##遙
##讐
##菖
##성
##脊
##茸
##임
##壯
##稠
##顗
##ث
##ก
##溺
##箚
##瀋
##匙
##顥
##銖
##ල
##兀
##匁
##蔚
##菰
##%
##ṭ
##∩
##င
##棗
##级
##乖
##ᠰ
##窈
##카
##泡
##卜
##Ж
##陋
##袂
##व
##髷
##襄
##罷
##ட
##匿
##芾
##芥
##螂
##歪
##ᠢ
##莞
##陛
##籟
##—
##沛
##酎
##ס
##蛮
##獠
##丕
##撞
##潼
##게
##Ν
##瀾
##釐
##矮
##湫
##崙
##≤
##孵
##匂
##爲
##邕
##皋
##芭
##沔
##霖
##უ
##沸
##炒
##ג
##糠
##ð
##는
##ɯ
##מ
##吻
##鑓
##拱
##방
##Τ
##त
##ย
##竃
##宥
##綻
##桝
##•
##穣
##潴
##捉
##或
##盒
##라
##’
##ć
##柊
##恣
##็
##祜
##Ψ
##舂
##遁
##綰
##사
##车
##й
##*
##媛
##鞠
##戰
##棣
##醫
##炙
##Φ
##匐
##ᠣ
##勃
##د
##ē
##諌
##鴎
##ி
##虜
##ु
##噛
##્
##縷
##鍼
##弑
##∪
##်
##柩
##厲
##繞
##盆
##噌
##逵
##琚
##嬴
##چ
##芋
##祢
##鄒
##侑
##โ
##ف
##檜
##ŋ
##É
##鎭
##ा
##瀚
##행
##珈
##渦
##猥
##Л
##栢
##匈
##芮
##溥
##輻
##茲
##貪
##幢
##ː
##悼
##宕
##화
##醉
##稀
##च
##聲
##臂
##衰
##鰓
##÷
##嶮
##鮎
##銛
##饅
##錣
##喃
##鳶
##盞
##趺
##ष
##佇
##漸
##劔
##鐵
##闍
##櫂
##瑤
##ж
##罔
##蚊
##蘆
##芷
##醇
##崋
##頚
##惚
##粥
##†
##崧
##頊
##飜
##璽
##馮
##鄂
##소
##悌
##挂
##鶚
##塹
##蛭
##偕
##殆
##橄
##闢
##훈
##畫
##鯱
##朧
##Χ
##莫
##鐙
##ق
##안
##些
##窄
##絨
##皺
##예
##躇
##鬣
##頗
##鼬
##대
##덕
##유
##營
##磔
##欅
##佞
##臈
##ស
##동
##憚
##辭
##ヮ
##懋
##踵
##蛹
##刹
##啄
##奸
##閾
##蕉
##燗
##捧
##雉
##涎
##〕
##隨
##蕾
##敲
##竄
##彤
##覺
##터
##糊
##τ
##薨
##두
##犁
##諷
##ᠨ
##ो
##珥
##脛
##怯
##涜
##ท
##璟
##惨
##צ
##弩
##婉
##已
##俎
##苧
##慨
##褪
##咎
##祷
##稟
##擦
##ซ
##旁
##惹
##网
##杼
##̄
##喆
##ར
##檄
##들
##瀞
##騏
##轅
##े
##唾
##汪
##蹇
##墻
##孕
##碇
##瞞
##帶
###
##洒
##橿
##訊
##ས
##Í
##Е
##闡
##ە
##ζ
##晗
##燦
##∈
##髑
##髏
##淹
##鶉
##臘
##蝎
##癪
##誼
##笄
##황
##斡
##蝦
##无
##舵
##稍
##Т
##ø
##寔
##脹
##▲
##ゝ
##琬
##嫡
##ק
##毀
##陪
##椋
##卷
##蜉
##蝣
##舩
##璉
##几
##澹
##恃
##雋
##圖
##剱
##甑
##ř
##衷
##ь
##茘
##靭
##薛
##帚
##아
##聾
##바
##︎
##曄
##َ
##آ
##ะ
##喉
##靡
##ʁ
##鴛
##龐
##淞
##歎
##銓
##矗
##耘
##邈
##歐
##翌
##桔
##嫩
##य
##ɾ
##冲
##苛
##潁
##⇔
##倦
##ֶ
##歸
##瞑
##靺
##畏
##辜
##稱
##ׁ
##廢
##亘
##ヽ
##翎
##冗
##과
##朶
##晞
##恂
##旌
##褻
##隕
##墩
##禦
##掟
##瑟
##緬
##靠
##琢
##滓
##ា
##筮
##譯
##仄
##棉
##牽
##ు
##肪
##紬
##ն
##ْ
##靂
##爭
##矣
##ය
##夾
##筌
##니
##厦
##遜
##ě
##Á
##唖
##凉
##嶠
##掠
##람
##孜
##囮
##礦
##詡
##ゎ
##焙
##烙
##徊
##榊
##塑
##妓
##é
##ʼ
##譽
##ව
##佃
##眩
##瑜
##ш
##ध
##盡
##茯
##恬
##錆
##郃
##黍
##廨
##剋
##套
##朐
##누
##犂
##신
##站
##涛
##袴
##俸
##←
##黑
##頬
##釗
##輯
##牆
##髙
##步
##禹
##ḥ
##¡
##전
##霆
##礪
##¬
##痣
##珣
##ข
##@
##亶
##挨
##磋
##獺
##鐡
##گ
##寵
##歿
##燻
##驛
##矧
##다
##ض
##擔
##沓
##亳
##悉
##芻
##迹
##訶
##회
##ṇ
##痒
##弛
##Š
##자
##沮
##鄙
##蘂
##藺
##박
##ุ
##ㇰ
##瘍
##樗
##滲
##·
##±
##ט
##峪
##厘
##ट
##搜
##圍
##鱒
##°
##誥
##戀
##구
##摯
##綫
##箔
##상
##ह
##凶
##誾
##◆
##민
##鈷
##奘
##刁
##鄧
##‡
##ɔ
##ᠥ
##塼
##♯
##艮
##ธ
##鏃
##鬨
##髻
##仍
##竝
##廈
##蓼
##姨
##勗
##鎰
##ᠭ
##Ū
##ි
##ћ
##歇
##嗟
##浙
##儺
##廂
##漳
##熨
##娠
##徨
##椛
##襦
##萼
##浚
##髦
##仗
##弔
##衒
##熲
##仇
##龗
##臚
##胱
##兇
##瑕
##鬢
##膏
##卉
##苟
##柚
##弉
##涵
##訥
##ู
##驤
##詔
##萢
##劍
##牝
##У
##彎
##弖
##━
##ᠬ
##◇
##奚
##을
##내
##賁
##鹵
##길
##尔
##淋
##ִ
##ô
##ვ
##豺
##Θ
##Č
##霍
##謔
##攣
##场
##拐
##蟄
##繹
##舫
##க
##계
##刳
##邵
##槓
##饌
##¥
##碍
##戮
##∴
##က
##≈
##胥
##緝
##襴
##碌
##ण
##葭
##膚
##း
##키
##晦
##洩
##ิ
##赛
##膀
##變
##絁
##煜
##托
##莢
##≧
##녀
##吠
##鷗
##僊
##沐
##楔
##蜷
##賑
##亢
##暈
##犍
##肚
##賄
##ո
##薇
##■
##賣
##隸
##Ā
##葎
##箒
##效
##樸
##簀
##倩
##繪
##惰
##각
##嗅
##ณ
##胖
##馥
##瓔
##ח
##熔
##巍
##ُ
##족
##瘻
##捩
##鴈
##郝
##Х
##鷯
##რ
##鵝
##√
##∧
##詧
##პ
##嗜
##ภ
##瑳
##棕
##檮
##愧
##濵
##萃
##〉
##청
##嵌
##剿
##說
##錨
##羣
##疆
##រ
##爻
##騫
##Ἀ
##韋
##仝
##梱
##闕
##詭
##ய
##靫
##汜
##蔀
##嚮
##椙
##鸚
##竈
##椴
##莽
##와
##勛
##द
##驗
##ê
##甦
##砿
##ս
##坏
##玻
##鵡
##捏
##莎
##誨
##綽
##‘
##罐
##ت
##Ḥ
##韮
##별
##笏
##瓚
##渫
##خ
##焉
##滁
##ल
##悳
##្
##鬆
##ү
##渇
##⊆
##昧
##澎
##驃
##ī
##疼
##禪
##奢
##贖
##專
##繍
##貳
##ñ
##치
##錯
##宦
##妥
##笈
##Ś
##塙
##蜃
##ɡ
##轉
##汨
##暎
##朦
##朮
##瀉
##哺
##縋
##溌
##♠
##掖
##艙
##용
##扈
##è
##詢
##์
##窘
##⟩
##檎
##槙
##த
##樟
##劾
##箆
##筥
##–
##♦
##葯
##萠
##′
##慊
##籔
##藁
##ผ
##峅
##軋
##卍
##佼
##咩
##盂
##ប
##愴
##侃
##廞
##鬘
##脆
##釋
##黴
##纈
##耿
##跛
##ɛ
##昨
##籬
##暘
##沽
##棹
##鑰
##哩
##餓
##斛
##蛤
##ග
##龜
##晤
##团
##ུ
##辟
##ᄉ
##廖
##燿
##杓
##耽
##侶
##鈞
##齧
##ת
##ş
##痺
##躅
##ễ
##ལ
##葫
##刎
##筝
##拯
##毋
##│
##娼
##伶
##ộ
##迭
##灝
##輕
##ǁ
##釦
##傀
##榧
##弇
##면
##श
##ம
##靼
##惧
##婕
##鷄
##聰
##Δ
##笊
##娃
##▼
##汞
##霓
##瓘
##瑋
##茫
##愷
##翟
##筍
##妍
##ს
##炬
##倪
##酥
##獏
##晁
##雙
##疣
##舉
##ū
##艪
##규
##야
##蛯
##浣
##ᄂ
##雜
##糺
##〒
##ɨ
##烽
##逍
##鍍
##§
##馭
##猜
##倚
##嬛
##△
##ʾ
##ɣ
##截
##膺
##氾
##鈑
##濮
##莆
##臍
##鄴
##嶝
##訣
##қ
##侮
##滔
##贔
##鞋
##諤
##襞
##Γ
##鏑
##暹
##艘
##鷦
##閇
##窺
##ब
##桧
##萍
##逼
##綝
##迴
##ं
##鈿
##⋅
##飫
##∂
##迂
##ɫ
##鞴
##〟
##壙
##濊
##涂
##遽
##嚴
##鞏
##铁
##喇
##漑
##秣
##ح
##Ο
##≔
##价
##觀
##ę
##邳
##欖
##瀛
##菫
##식
##紇
##⟨
##ä
##淨
##謬
##Ó
##嚇
##拌
##斃
##欝
##咥
##祟
##穹
##鑒
##壢
##讖
##棠
##絳
##î
##洱
##寬
##线
##嚥
##膣
##교
##가
##緻
##麵
##珉
##œ
##葆
##濾
##掬
##篋
##乐
##비
##唆
##玫
##ظ
##妨
##埵
##拜
##黃
##鏞
##磧
##‖
##閨
##劭
##呰
##〝
##̞
##鹸
##噪
##曦
##裴
##謳
##轍
##ḍ
##鍔
##孩
##褥
##訌
##ᡳ
##ậ
##塡
##獨
##倖
##辣
##邽
##樅
##攫
##睨
##鎔
##蹶
##駕
##ʻ
##戔
##栩
##捐
##夥
##ї
##မ
##僭
##僻
##僅
##砧
##徧
##袱
##俚
##剖
##楪
##亙
##ா
##蛾
##ō
##踝
##Π
##래
##撚
##ག
##雰
##მ
##髯
##罕
##Ζ
##曖
##涇
##肱
##渣
##驍
##涅
##癡
##蛎
##鳰
##醴
##蒻
##閻
##ἐ
##본
##Ş
##狢
##輜
##駱
##디
##徭
##貰
##輓
##ם
##倻
##纒
##昵
##鴇
##„
##猗
##ல
##泄
##ˀ
##嬀
##鮪
##蠕
##疽
##〇
##奠
##통
##≥
##ជ
##臆
##ေ
##皖
##攷
##თ
##謐
##嫉
##册
##陞
##沅
##┛
##憊
##淤
##竇
##蠣
##臏
##လ
##穫
##軾
##浬
##ў
##侈
##咫
##ť
##羲
##荃
##围
##송
##嗚
##憺
##ւ
##蟠
##賾
##တ
##慄
##ʉ
##糜
##頠
##栴
##군
##渟
##夙
##稗
##운
##卞
##櫟
##홍
##曝
##혁
##寡
##跪
##娟
##雹
##♂
##肖
##پ
##ہ
##滾
##𠮷
##舊
##瑙
##鯰
##嵬
##ĕ
##跏
##咀
##ῦ
##妤
##闐
##Ž
##滕
##繼
##倅
##讓
##痍
##礬
##⊕
##艀
##ũ
##蛟
##詛
##〆
##廩
##傲
##斟
##酊
##ძ
##榜
##̯
##罫
##掏
##橈
##️
##š
##ფ
##학
##揄
##慟
##埕
##簫
##õ
##鵄
##ᡥ
##ơ
##槃
##叭
##禺
##麝
##Э
##拶
##ᠶ
##輒
##犢
##弯
##鰯
##█
##霙
##糯
##皎
##氈
##Ú
##呻
##醂
##黔
##誑
##ɦ
##ῖ
##ń
##ọ
##哪
##코
##缺
##珎
##靈
##橇
##囀
##愾
##Ō
##Ε
##揶
##躙
##竦
##聘
##蠅
##蹲
##ṅ
##椚
##ི
##妬
##┼
##猾
##권
##闊
##鵰
##冉
##鑽
##으
##생
##唸
##ç
##̀
##庠
##癇
##侘
##搦
##扼
##謖
##欺
##È
##庾
##饉
##繫
##བ
##梦
##彅
##晄
##^
##©
##躑
##岨
##འ
##笵
##紮
##荀
##欒
##頡
##惡
##蜴
##睫
##醪
##瑣
##愈
##蝸
##陟
##阮
##ր
##ă
##瘴
##俯
##瞰
##þ
##盎
##Ч
##啖
##ɒ
##聊
##軼
##鍮
##們
##濘
##攝
##赳
##飄
##ک
##Æ
##湍
##膂
##冏
##裟
##蹂
##蔗
##諄
##厓
##壟
##鮨
##레
##ۇ
##聳
##毫
##驕
##簗
##ἀ
##郢
##鉅
##栁
##簑
##癬
##┳
##繆
##̈
##眈
##Ü
##誣
##儋
##煽
##藷
##靳
##ြ
##여
##Ö
##판
##冤
##豁
##偲
##À
##呟
##魎
##蔬
##ེ
##稈
##逹
##ச
##剝
##鹹
##鹽
##弋
##檸
##窠
##訢
##扎
##憫
##諍
##간
##邀
##籃
##躾
##轢
##躊
##鯵
##膾
##颪
##ả
##翹
##琨
##狒
##悍
##烟
##渺
##독
##ë
##篁
##傕
##苾
##簸
##悧
##譴
##匕
##閬
##栂
##孛
##駙
##劈
##嗾
##瓏
##합
##渙
##箪
##薀
##≠
##閂
##佟
##ᡤ
##ὐ
##鐚
##ʕ
##瞋
##磡
##椥
##榕
##閼
##ื
##恰
##ব
##Ἰ
##Ç
##투
##褄
##謗
##鰤
##柞
##囁
##隗
##韃
##噶
##顰
##蹙
##睺
##脾
##賴
##ị
##ù
##甜
##髴
##ර
##蚤
##齎
##屓
##ᠳ
##餮
##忻
##ᠪ
##讚
##輳
##세
##頽
##戡
##€
##鑢
##褫
##侭
##庖
##軻
##撼
##∠
##筺
##沌
##भ
##瀕
##狽
##莚
##廳
##č
##爰
##闔
##茱
##♣
##莊
##穰
##腑
##艱
##ზ
##恫
##鵲
##弌
##奭
##霰
##蕁
##禊
##泪
##러
##殤
##ર
##烹
##愕
##贛
##濰
##ế
##熕
##鐔
##ု
##夭
##靑
##번
##ᠩ
##璩
##ј
##藉
##訝
##紂
##翡
##Ø
##말
##Β
##軛
##癸
##懌
##內
##舅
##ı
##鄲
##愃
##瑯
##왕
##簒
##聟
##魃
##頷
##뉴
##屆
##咆
##》
##碾
##瀆
##漱
##惺
##ɲ
##輛
##广
##奧
##癩
##皷
##悛
##Å
##憬
##표
##Ξ
##驢
##瞿
##ɹ
##梼
##백
##鰊
##岛
##鞅
##晰
##┏
##哮
##鑁
##羈
##幀
##ʿ
##楸
##⊗
##嗇
##å
##菁
##懺
##电
##逅
##̩
##憾
##邂
##楳
##戩
##鸕
##毯
##蚌
##∨
##獪
##瀟
##ì
##வ
##མ
##鵺
##゠
##拮
##沾
##Κ
##湣
##≦
##萸
##출
##慇
##勞
##睾
##░
##縯
##粁
##岷
##ἄ
##瀏
##울
##«
##虻
##懃
##俱
##鑲
##鋺
##迥
##ý
##虢
##轡
##ệ
##潞
##Đ
##ồ
##曺
##沱
##蛉
##ㇼ
##恆
##∗
##▒
##̝
##躓
##∘
##翦
##潯
##釵
##Ա
##訃
##滸
##ტ
##雖
##필
##鰍
##箍
##粮
##睢
##莇
##⬛
##邾
##瘢
##┃
##滎
##ĩ
##洮
##霹
##彿
##ქ
##杳
##抒
##瓌
##ㇱ
##淺
##Υ
##潅
##筧
##淦
##ề
##汕
##詈
##⋯
##嗽
##璇
##ỹ
##咤
##詹
##↦
##ང
##騸
##龔
##ň
##최
##甄
##ã
##俑
##鞜
##悴
##∖
##ư
##畸
##懣
##┓
##瑰
##﨑
##紊
##년
##إ
##郴
##ᠵ
##燵
##堝
##≫
##손
##隘
##ạ
##陴
##盪
##誂
##â
##喊
##魑
##麴
##屡
##⊿
##驒
##ł
##絅
##轆
##ʏ
##厠
##酘
##╋
##佶
##Þ
##Ł
##凋
##‰
##⚫
##闖
##┫
##貘
##û
##酛
##⊂
##히
##筰
##∑
##鄯
##粳
##Ά
##ò
##殯
##鶻
##┣
##or
##us
##orp
corp
corpus
##at
##ata
##xt
data
txt
する
いる
ある
から
こと
- 
##して
として
によ
なっ
その
ない
##リー
##ール
ため
など
##ター
れる
##ック
この
日本
##ット
##ング
られ
##ラン
##スト
なる
##ート
よう
##ュー
あり
あっ
まで
また
##ーム
もの
##ード
とい
##ント
という
##ティ
##ョン
##ージ
##イン
##ンド
##ディ
##ース
##って
でき
おり
##er
大学
##かっ
##リア
これ
により
より
##ーク
放送
##ション
それ
昭和
##ップ
4月
による
3月
##ける
によって
##ーズ
 -
##リカ
##レビ
##れる
##イト
##on
##バー
プロ
なり
##in
英語
東京
##ーン
だっ
##an
現在
なく
アル
##する
##ライ
アメ
##いて
場合
世界
##える
アメリカ
##かし
なかっ
##レー
テレビ
##ンス
使用
につ
##ープ
受け
平成
##ャン
時代
9月
できる
に対
##ar
##ラー
7月
学校
について
1月
##en
行わ
会社
##リス
8月
##リン
選手
6月
##める
ファ
##カー
登場
5月
しかし
##ーマ
##ッド
##ランド
##ンジ
##しい
たち
##ンク
##イル
られる
##ルト
発売
研究
##ンター
おい
作品
2月
##ナー
##al
存在
映画
キャ
開始
多く
##es
番組
コン
活動
およ
可能
##ックス
当時
ライ
##ステ
##シュ
フラン
同じ
##ャー
##ニア
##マン
##ic
および
##リーズ
##ダー
##シア
しま
明治
ページ
##ラス
##学校
発表
呼ば
時間
出演
##られ
##サー
その後
##ファ
##it
なお
行っ
一部
鉄道
大き
取り
##イツ
##レイ
代表
##ンタ
フィ
同年
##ロー
開催
たり
##フィ
##is
##イド
開発
##オン
##ナル
なが
変更
だけ
ディ
ジャ
##ッチ
ニュー
持つ
##フォ
参加
さら
##ニー
スタ
ドイツ
オー
バス
##ブル
##クター
##バム
地域
チーム
関係
以下
担当
音楽
##he
##ジオ
##シャ
試合
中国
自分
##クト
用い
とも
##スタ
以降
おける
ドラ
##ーズン
ながら
##ンバー
ウィ
なら
##レス
##le
##ソン
##パー
大阪
利用
国際
さらに
##ウン
出場
タイ
##まれ
リー
フランス
引き
記録
中心
##ベル
設置
##ングル
##ウェ
いう
ます
株式
に対し
以上
##ビュー
所属
##ーツ
かつ
##スター
シーズン
自身
考え
収録
監督
行う
大会
女性
多い
##ol
##ータ
スペ
##デル
##ウス
##ion
せる
一般
スト
シリーズ
フォ
##el
クラ
情報
ゲーム
##as
必要
事業
##ンチ
人物
##ネル
務め
##フト
##ou
攻撃
アルバム
/ 
##ニメ
作曲
中央
コー
##イス
##ールド
使い
##ーション
##まり
文化
##ヴィ
一つ
アン
ジョ
##わせ
設立
意味
##ヴァ
社会
教育
問題
##om
##ギリス
イギリス
##ころ
ジェ
出身
とき
##しく
ただ
##キー
位置
##re
##さい
地方
ほか
フェ
委員
##ループ
結果
卒業
いっ
イン
最終
##リング
いく
優勝
##am
影響
##上げ
サン
シングル
##ロン
##フェ
##ディア
事件
たら
終了
制作
##わっ
##日本
ブラ
自動
最初
##ジア
当初
##カル
##かけ
ほど
通り
一方
販売
たい
計画
##まっ
##ーター
##めて
##et
##コン
うち
高校
km
です
同様
##ステム
##il
##ッカー
##とも
##わり
##メント
獲得
選挙
ステ
高等
##ジェ
場所
人間
##ラクター
##ょう
##ac
アイ
サー
彼女
最後
アニメ
全国
##ro
のみ
##ンガ
建設
チャ
##シー
経済
そして
発生
IS
##イク
ところ
##ルス
##ぞれ
##ンダ
メンバー
##ラム
都市
それぞれ
かけ
##ビー
本作
アー
##ッシュ
##アル
技術
##ショ
調査
##ing
持ち
女子
状態
##られる
戦争
就任
世紀
##スク
廃止
##ER
##ケット
リンク
機関
政治
##レン
##モン
ロシア
名前
決定
野球
公開
これら
小学校
年間
年度
しまう
##ザー
契約
##イズ
オリ
##エル
##デン
##テン
合衆
歴史
持っ
スポ
政府
京都
実施
シャ
グループ
##リスト
構成
ただし
スー
異な
##ーロ
ウェ
施設
複数
ラジオ
##リース
##AN
##つけ
##ビス
##リオ
以外
##アー
##クション
使い方
記事
ヴァ
##チャ
及び
##んど
相手
初めて
路線
##ch
脚注
設定
##ートル
公式
に対する
..
ブル
運行
高い
##ッツ
部分
リーグ
市立
採用
##BS
管理
出版
戦闘
通常
ホーム
特別
##アン
航空
戦い
主義
作詞
かつて
##ニング
) 
果た
##イヤ
製造
同時
入り
起こ
向け
##ter
センター
##タル
生活
名称
能力
出来
一覧
##タリア
##出し
モデル
##かり
与え
結婚
あた
漫画
##ディング
指定
合併
機能
ショ
帝国
最大
キャラクター
シュ
##ザイン
共和
提供
最高
##らか
ロー
##BN
##IN
システム
##ed
##ay
組織
...
##ティー
##海道
NH
そこ
デビュー
始め
リリース
##ON
関連
含む
of
ISBN
列車
##わる
##テル
科学
さん
##ad
製作
スター
目的
伴い
に関
車両
クロ
企業
##ボール
##イトル
対応
マル
予定
イタリア
##nd
道路
##ッパ
NHK
総合
ヴィ
教授
##ゃん
##ig
JR
チェ
こう
##ルフ
受賞
##シャル
勝利
記念
移籍
##ビア
北海道
##AR
独立
基本
使わ
##id
内容
近い
自由
完全
##ッグ
ベル
地区
まま
生産
##コー
搭載
##リーグ
##キャ
海軍
事務
経て
交通
大正
時点
加え
コミ
主人
##マー
時期
理由
##タン
小説
発見
実際
そう
##ent
語版
江戸
ライブ
関する
##ュージ
企画
国内
営業
警察
宇宙
##とんど
運転
##ベント
##ーカー
特徴
ジュ
##ンジン
完成
運動
経営
撮影
##リック
述べ
朝日
インター
##バル
アナ
##ur
重要
成功
##キング
入っ
以前
##ギー
##プリ
##os
プレ
##ot
##ワー
運営
活躍
挙げ
##イア
協会
とし
少な
ほとんど
##チェ
子供
すべ
中学校
連続
会議
オープ
参照
##um
自ら
大きな
対象
様々
The
##ネット
タイトル
##トル
##ーナ
生まれ
##ation
非常
人口
付け
##テレビ
##せる
再び
##バス
##まる
##ミー
##iv
St
でも
名古
評価
性格
マー
部隊
##ルド
##んな
導入
認め
##パン
支援
専門
しまっ
編成
##プロ
のち
不明
行動
指導
サッカー
##クス
##ピック
##ストラ
: 
構造
編曲
##ir
ユニ
##替え
ドラマ
プレイ
神社
配信
項目
丁目
改称
紹介
環境
##ag
パー
ラン
人気
スーパー
ハイ
初期
入れ
男性
言わ
追加
##ッジ
公園
楽曲
続け
表記
チャン
トラ
設計
展開
スポーツ
##ow
##ゲーム
ジャン
##リエ
##リンピック
国道
ジョン
cm
大きく
限定
##サン
ティ
##ウンド
##IC
デザイン
サービス
マイ
ウォ
ネット
期間
表示
共同
回避
ザ・
写真
少年
県道
スペイン
##ギュ
開業
##II
移動
##ゅう
##ッセ
mm
下さい
##付け
労働
飛行
地球
案内
息子
物語
過去
ここ
連合
##ec
##ともに
##デュー
言葉
広島
##けれ
国家
映像
##AT
インド
知ら
レー
データ
最も
カル
##つか
変化
彼ら
死去
思い
##ジナル
舞台
##ジャ
##im
##ST
##込ん
指揮
大戦
フジ
##わら
劇場
バイ
##em
ヨーロ
##じる
方法
以来
アク
文学
##ガー
アレ
病院
##un
##ヴェ
基づ
韓国
由来
##OR
横浜
装備
 (
##太郎
##ウム
福岡
ヨーロッパ
どう
特に
に対して
よる
##ライン
##ジー
とともに
フリー
発行
ブロ
協力
仕事
裁判
国民
議員
区間
打ち
結成
アフ
演奏
##スコ
法人
クラブ
##クラ
ソフト
呼ばれる
教会
イベント
文字
##タイ
対戦
よく
バンド
異なる
グラ
カー
##げる
多数
選ん
##ia
団体
アジア
強い
美術
空港
電気
バー
##レーション
原作
好き
行い
程度
##シン
TBS
状況
工場
地下
 『
##st
ローマ
コーナー
エン
乗り
見つけ
##od
統合
誕生
立ち
決勝
引退
オリジナル
##込み
プラ
##じめ
経験
掲載
キャン
初代
##メージ
あるい
ユー
競技
##込ま
ドル
有する
支配
朝鮮
##ap
建築
中学
陸軍
しか
適切
##ロス
べき
高速
主張
ファン
登録
##ジャー
連邦
ぶり
通信
##ゴン
工業
確認
##ut
学園
##こう
銀行
ミュージ
ひと
ほぼ
張り
同じく
サイト
試験
天皇
クラス
##ネス
##VE
なけれ
事故
ボー
##ずれ
報告
生ま
曖昧
CD
生き
大統
運用
組み
移転
##ヤー
学生
なか
大統領
元年
エンジン
使っ
カード
##ドラ
表現
全体
##ウト
the
いい
しよ
効果
##リティ
##ポート
自然
形成
生徒
整備
##コード
In
人々
少女
シン
##ティング
作戦
プロデュー
トン
##ウィ
ハー
くる
合わせ
##AL
##イント
共に
学者
##ダル
##ガン
エル
##入れ
フジテレビ
普通
##プト
自治
##ヨーク
##ジェクト
発足
ニュース
家族
##BC
工事
途中
##かる
会長
##シリーズ
取得
##ub
##and
##oc
比較
ヴェ
Ch
受ける
##キュ
##ul
現代
サイ
##ピー
死亡
地名
##ニュー
個人
##カップ
##セン
ニューヨーク
繰り
いわ
学部
すべて
勝ち
##ルム
千葉
新しい
番号
専用
動物
選出
##AS
##っと
公演
入る
##ッション
破壊
業務
##ンパ
##ルー
##ールズ
産業
行政
成立
大臣
形式
拡大
装置
正式
がっ
##ークス
ビル
目指
王国
in
周辺
##デオ
ワールド
レース
輸送
出し
部門
##ントン
自動車
テーマ
復帰
連載
##キシ
発展
##HE
用語
魔法
求め
主要
##レット
愛知
ダイ
一番
男子
オブ
いずれ
条件
シェ
##から
##チュ
直接
社長
呼び
##ズム
編集
スク
メートル
追い
スカ
分類
競馬
##らい
描か
##ンテ
クレ
本人
##VD
##AM
##ak
制度
ベスト
##FC
##ーリー
##ジュ
##パス
##リート
トップ
務める
国立
##ージョン
もう
ベース
当た
本社
なし
芸術
関西
##EN
保護
カナ
言う
フレ
切り
##ers
##がっ
父親
食べ
料理
##セス
迎え
##ラル
議会
続い
やす
コロ
図書
##ウェー
クリス
含め
デジ
##ルク
開設
付き
以後
選ば
種類
電話
メイン
取締
##ov
選択
有名
レイ
本部
俳優
##探し
新潟
張り替え
地元
中継
ゴール
反対
市内
お探し
郵便
なん
選手権
##らく
小学
武器
特定
フル
フロ
プレー
ゲスト
人民
##ちら
事実
##しょ
##ンドン
市民
##リーン
水先
TO
ター
アラ
##イドル
流れ
方式
博士
精神
##新聞
成績
##ギュラー
わた
批判
##かい
カリ
作家
説明
スタジオ
地上
安全
大型
アンド
近く
ロック
決め
翌年
th
##ゆる
##スラ
ステージ
女優
##アップ
オープン
##さん
神戸
観光
雑誌
示す
##トロ
##AC
##として
##シェ
によれ
被害
原因
復活
##op
平均
加入
店舗
所在
##レード
に関し
##レンジ
アカ
##OM
静岡
##ピュー
もって
台湾
##ie
マン
##グラ
見せ
##ra
スピ
##くり
あまり
支持
製品
##ブリ
明らか
あたる
##ストン
##グラム
敗れ
ピア
##ッカ
レギュラー
進出
##バイ
語っ
神奈
##ミア
記述
##メン
民主
建物
設け
沖縄
##イロ
##IS
脚本
仲間
スコ
規定
言語
##トラ
##シング
東北
医療
増加
##合わせ
アド
パリ
ST
編入
##ID
##og
##っかけ
##ウル
購入
小さ
##ースト
##ウンサー
##出す
##ゲン
DVD
各地
##ランス
kg
候補
所有
##ブルク
##ボー
はじめ
THE
達成
ホール
唯一
##メラ
市場
直後
バル
##ラク
##ッケ
IC
つけ
南部
##EC
政策
プリ
##スティ
ロンドン
全て
商品
##ri
##もの
ともに
東海
##ce
福島
長野
外国
##ばし
##チーム
植物
出会
ギャ
従来
将軍
特殊
距離
スペシャル
##ーフ
ハン
にかけ
離れ
##ュニ
##ワード
標準
##ライブ
組合
入学
伝え
報道
実験
細胞
指摘
演出
改正
記載
富士
##ワーク
令和
ごと
電子
アフリカ
例え
作り
失敗
##ビル
高く
##合い
通じ
山口
成長
オン
コース
##レート
配置
プロジェクト
代わり
方面
TV
防衛
##ネルギー
事務所
派遣
土地
再開
拠点
埼玉
カン
生物
行き
##マス
##ard
##ニック
関東
行為
施行
住民
示し
上記
に関する
##AP
タイプ
##th
法律
##オー
太陽
##ッキ
違い
##igh
強化
なさ
知られ
##なり
同社
メディア
##つつ
SP
イメージ
主演
ギリ
##ファー
You
紀元
化学
神奈川
本線
障害
スパ
兄弟
##ちゃん
実現
モン
落ち
米国
ルー
##av
海外
バラ
理事
トリ
呼ぶ
形態
フラ
Re
仕様
##ウェア
母親
戦後
##ok
##ピオン
作成
残し
##ブラ
言っ
##ッフ
歌手
方向
政権
##ンズ
長崎
使う
感じ
##ab
温泉
##ランダ
思わ
内閣
史上
軍事
エネルギー
マク
詳細
##ポン
アイドル
学科
描い
鈴木
巨大
やっ
新設
##ハイ
オール
速度
付近
たく
投票
停止
##ill
デジタル
BS
##OS
##ガル
CM
改造
学院
おら
毎日
##バート
言い
##スカ
中華
パラ
##ディー
ちゃん
##リアム
カナダ
残っ
##らし
分離
de
だい
強く
制限
無い
##ッサ
##FA
系列
作業
書き
##ルコ
解散
##センター
機械
st
##込む
ポー
グラン
本来
殺害
集め
##ダム
継承
タイム
置か
##eb
##ist
年生
創設
##AD
書か
接続
感染
独自
ジョージ
比べ
 [
少なく
維持
##エン
貢献
##RE
##OL
トゥ
ださい
レベル
##がり
商業
##ドラマ
鹿児
続く
役割
あい
依頼
##より
##ナム
全員
古代
至る
東日本
友人
伝統
岐阜
披露
##ell
相当
##ジン
##ストラリア
制御
##ミング
基準
エレ
土曜
スタート
##イルス
電車
金曜
##est
操作
昇格
見る
いくつか
太平
展示
参戦
シーン
処理
連盟
資料
##IT
##スタン
進め
現役
オーストラリア
##ンダム
周囲
行く
解説
振り
新た
作っ
刊行
系統
北部
##まま
##チン
##ボン
住宅
田中
岡山
##切り
長い
おお
責任
現れ
兵庫
継続
条約
毎年
##ine
Al
提案
基地
革命
分野
号線
統一
要素
延長
とって
もら
町村
##ハン
##ピュータ
交換
農業
仙台
経由
札幌
##ライナ
熊本
セル
さま
まし
ニコ
競走
プレイヤー
命令
ワン
共通
##がる
##OW
オリンピック
不可
通称
クリ
##サル
用法
あれ
思っ
##ess
判断
動き
後半
ヒット
院議
カップ
家庭
予選
交流
伝説
ホテル
なわ
宣言
機体
フィリ
にお
工学
軌道
部屋
機構
集団
もっ
ツアー
##バン
それら
ウィリアム
主催
##ダン
キリスト
声優
##んじ
挑戦
陸上
文庫
まと
起き
オランダ
除く
##ーラ
##掛け
プロデューサー
パン
ダイヤ
新聞
佐藤
意識
認定
秋田
禁止
##ET
刑事
##ミン
宗教
ファイ
##ジョン
中村
知られる
メーカー
近年
反応
医学
艦隊
##ct
##ッキー
イング
ひとつ
博物
ビデオ
知っ
危険
貨物
##all
ブラック
An
定め
##レント
貴族
##まれる
主題
読み
全く
知り
良い
首相
##カン
すぐ
内部
##カード
首都
理論
スキ
向か
##スペ
衆議
##ジション
名誉
コミュニ
大陸
始める
インタ
##ショナル
##UN
制定
ソ連
皇帝
##ンスター
司令
語句
##ビン
治療
ユニット
中止
観測
』(
前作
en
要求
##ボット
逮捕
大学院
ポイント
##ラスト
訪れ
訓練
##シック
結ぶ
減少
空間
移行
ヘル
プロレス
名古屋
レコード
ルート
##art
勤務
自己
向かっ
第一
##マーク
停車
キロ
##チャン
奈良
##ip
広く
おいて
→ 
職能
##メディア
##ニス
##ナイ
ライン
終わっ
##ノン
向上
##ob
ミニ
発言
芸能
##返し
##ーマン
後述
##この
しまい
得る
##トゥ
出来る
指す
ブランド
限り
日曜
吉田
アナウンサー
扱い
定義
モー
バージョン
隣接
戻っ
##ind
デ・
改革
パート
##てる
勢力
ユダ
本名
進学
ブリ
エア
通過
名義
##システム
キー
カラ
あら
連絡
ソロ
書い
つい
##ive
そこで
メジャー
して
FC
デュ
セント
基礎
##ブン
段階
連れ
##ik
##ゼル
and
##リーム
見られる
防御
コンビ
身長
とり
リン
含まれ
##セル
ミサ
エド
前後
##US
スタッフ
ギター
##if
##ケル
##リアン
長男
##続き
ヴォ
一緒
演じ
得意
備え
様子
用いる
大規
視聴
##io
欧州
近代
単独
ガス
亡く
分割
率い
エピ
異なり
インターネット
市長
体制
名乗
王座
##ヴォ
地震
日本人
到着
##ッター
規模
国鉄
更新
会員
##ウェイ
民族
西部
##ティスト
出る
起こし
##フレ
代目
##ロール
石川
練習
前年
対立
英語版
小型
動画
##メートル
推進
取引
起用
##NA
旅行
オル
##ッコ
##デー
巻き
ユダヤ
始まる
保存
##フォル
理解
開幕
指名
帰国
負け
まれ
少ない
進行
教師
FI
置く
駅間
平和
デイ
##ight
収め
ミュージック
Bl
##アイ
Sh
会場
建造
応じ
始まっ
エンディング
児童
##ホール
飛び
##ばしば
アマ
全日本
##プラ
##UR
##ッピ
意見
##ルン
##ンサー
##ES
投手
後継
##ソード
身体
大量
自体
##TV
困難
開通
##ノー
##ケーション
記憶
ノー
##ジアム
FM
スマ
捜査
チャンネル
未来
##取り
確保
##ッシ
部長
##ストリア
前述
Sp
なみ
範囲
ストーリー
##BA
ヶ月
管轄
##クロ
消滅
電力
目標
高橋
LI
改良
著作
回復
ピアノ
発電
レッド
##ジル
キング
資格
##チャー
原子
教え
消費
##ant
単位
##しか
ポーランド
対策
プログラム
建て
##ザン
任務
半島
##ーブ
##オリンピック
幕府
オペ
通算
##ウォ
解放
回転
助け
いつ
##デミー
Ar
徒歩
PC
任命
共演
安定
一定
松本
押し
富山
新宿
面積
イングランド
体育
##キン
##ソング
呼ばれ
山本
アト
深夜
機器
##サイト
オス
仮面
コード
性能
実行
与える
注目
##エスト
供給
##ort
命名
##ew
エイ
学会
定期
たか
作用
改め
まだ
たま
山田
発射
立場
##ッテ
乗車
かなり
グリ
##ロード
同盟
##サート
ウク
##ずか
##ティア
##ハウス
##フル
テレ
阪神
資金
王子
##ピン
シー
##アニメ
今日
マイク
向かう
スケ
趣味
##シャン
##ソナ
短期
人名
三郎
やり
創立
##ティブ
作る
##ud
出現
##OC
小林
ライト
##AG
区域
旅客
##ざま
##ツィ
取っ
つく
判明
ずつ
##トン
バック
##テム
さい
サポート
東部
##一郎
コンピュータ
##ゴリ
##出さ
両親
共産
判定
ウィキ
チャンピオン
殺人
執筆
##ドリ
伊藤
健康
戦士
カバー
サラ
保険
##くら
自衛
弁護
分け
##アルバム
##トリック
##ep
周年
替え
##シティ
##ライト
作られ
##プレ
フォー
マーク
伴う
歌詞
だろ
兵器
エリ
車体
##パート
##サス
##ルトラ
低い
残り
話し
ポジション
インタビュー
アシ
##デス
##トリ
年齢
投げ
SH
入社
売り
諸島
吸収
在籍
##ION
オープニング
解決
置き
II
交差
##ue
傾向
回戦
交渉
伊勢
撤退
対抗
##シス
ウクライナ
変え
秘密
##フォード
やすい
エリア
河川
準備
##カイ
計算
##ミュ
書店
南北
カテ
後期
無く
##ベルク
##ニュ
休止
##ne
画面
徳島
セット
引き継
北緯
入団
呼ん
藤原
##LE
地位
再生
##レクション
##ンタル
すれ
ダム
香港
イラスト
司会
##グループ
検討
AT
直前
惑星
##リュー
ルイ
##ニャ
##フォルニア
ブルー
チョ
##リーナ
天文
スウェー
ヘン
許可
##ちゃ
急行
審査
物理
##チェンジ
かか
危機
マネ
たび
認識
階級
権利
青年
ミサイル
初回
##ity
ブラジル
##セット
そのまま
徳川
ド・
毎週
いわゆる
現場
##けん
民間
大和
表明
スウェーデン
寺院
##ーブル
ドラゴン
メダル
設備
##ran
和歌
当選
形状
= 
##なっ
Com
##レーター
希望
騎士
週間
思想
見える
##ラボ
##ge
ヒロ
方針
西日本
コマ
##ロック
新型
オーストリア
##our
##バンド
##ーンズ
サブ
カリフォルニア
トラック
進ん
##ate
##キシコ
##AK
新人
##ウント
しく
##ーネ
##AY
始まり
##アス
領域
##OT
US
宮城
機会
##ッタ
Pl
##ワン
期待
ルール
元々
過ぎ
トロ
ラグ
合計
医師
青森
姉妹
くれ
愛称
結ん
はい
鹿児島
ひろ
##ian
Mar
コンテ
本格
##イオ
アップ
買収
基づく
体重
公共
分か
処分
なもの
失っ
開校
##ビエ
アリ
##ry
##デビュー
持た
##ルツ
##オフ
普及
##ティン
##バック
清水
##ドル
つき
##モンド
宮崎
Pro
とう
固定
負傷
エピソード
適用
パワー
従っ
分析
##ターン
テレビドラマ
否定
犯罪
消防
& 
得点
加藤
大きい
プレミア
##ナン
画像
分布
模様
##ワイト
ばかり
立て
提出
##リコ
ランキング
生命
##IR
イスラ
注意
ウルトラ
コント
アカデミー
上位
創業
登板
県立
背景
ポルト
先生
渋谷
スコット
改善
結局
大幅
##ING
Th
駅前
ジュニア
物質
無料
録音
推定
少し
概念
記者
鎌倉
あたり
トンネル
カメラ
##やか
アイル
年記
食品
大分
哲学
##しん
しばしば
襲撃
機動
まず
自治体
崩壊
ヤマ
トラン
##ティック
先発
画家
ファミ
バン
空軍
にい
##起こ
組み合わせ
##イング
週刊
コーチ
##OD
スタイル
財団
##ワイ
##ゴル
出す
通し
多かっ
生じ
##ブレ
敗北
##ナイト
知識
##ンガー
ペン
##IG
ブロック
にち
ブレー
ボス
番目
価格
出力
##ッハ
キャラ
ライダー
必ず
街道
##チュー
占領
##レース
逃げ
収容
##プル
前身
拒否
遺伝
区別
校舎
##ッズ
場面
乗っ
各種
求める
ベト
自宅
カール
果たす
##モデル
原則
##ボード
広告
##ib
現地
##サイ
もつ
用意
アレク
日本語
ダンス
一度
プライ
拡張
##ナウ
ノル
含まれる
試み
課程
ポール
属する
左右
アーティスト
臨時
##ジネス
検査
PS
##ゼン
##務省
かい
合流
長期
守る
##しみ
##ルタ
東経
公立
##持ち
##ピア
De
承認
##ラント
過ご
##プレイ
##次郎
渡辺
福井
##ack
置い
調整
人生
ダン
有効
表す
シル
侵攻
金属
ナイ
当駅
マイル
リーダー
ラテン
支払
命じ
##ディション
遺跡
増え
NE
さまざま
武蔵
##ube
ダブル
##CD
指示
##IM
##ord
携帯
ロボット
優れ
アイテム
ハード
##入り
やや
##ネーム
海岸
##EL
同日
閉鎖
学習
##ルズ
ゆう
爆発
送り
##シップ
略称
##ain
戦車
##そう
結合
大使
事態
信号
フランク
加盟
##ver
モノ
同名
衛星
強制
Un
ガン
初登
世代
論文
死後
戦略
文書
知事
川崎
ネットワーク
特急
##ログ
興味
ベトナム
信頼
おか
統治
てる
マリ
##むら
コンク
患者
メキシコ
作中
##タウン
マリア
変身
ほう
次第
歴任
##その
##ラブ
ジャパン
戦う
改名
考える
描写
流れる
価値
合格
移管
国会
アス
数多
コンサート
##ED
ヒト
実業
##コール
##せん
アイルランド
基づい
##ミナル
ガンダム
モード
燃料
積極
##キャラクター
海上
##チュア
地点
##ich
やま
クー
##ベルト
上昇
平日
太郎
呼称
オンライン
差し
##フォン
手段
 「
ごろ
##ソフト
##ーマー
不足
テキ
相互
さまざまな
##バラ
大賞
茨城
大人
といっ
証明
金融
まつ
級王
高さ
##per
ブレ
##テーマ
エク
通っ
ラー
山形
##end
人類
##レル
クラシック
##イヤー
枚目
球団
低下
竣工
上げ
##なた
兵士
大半
##ジョ
のり
はる
##レッジ
とっ
話題
福祉
超え
長官
##アナ
井上
現実
グリーン
メル
##シュタ
神経
##スタント
こちら
##イロット
不動
中部
属し
遺産
ディー
何度
聞い
見え
エジ
ワシ
がい
アプリ
翻訳
ロード
##ジット
あげ
##ect
サウンド
相談
##しま
英国
二つ
ベイ
憲法
##ーグ
クイズ
称し
木曜
判決
知る
##ータル
タレント
Le
オート
取材
小田
外交
投資
講談
##きっかけ
##テイン
##ff
あと
住む
送っ
デン
現象
長く
##ッポン
##ショー
ウェブ
YouT
優秀
群馬
##ly
ポルトガル
##かん
BO
リス
##te
##ントリー
感情
留学
移住
ホワイト
古い
予備
超える
集中
バトル
##ームズ
将来
衛門
軍人
##プス
弟子
生息
規制
完了
##レクター
満た
いき
執行
プロデュース
育成
##ーリ
有し
Cl
中間
議論
ミス
音声
本編
##モンズ
ヒュー
結び
##ゼルス
本拠
免許
車道
付属
##続け
イエ
走行
記さ
ドライ
開か
##ass
ダウン
突き
##ベース
##ミニ
##ルマ
住ん
反乱
##取っ
ハリ
Am
暮ら
残る
##ミス
##なる
早く
空気
武装
職員
至っ
##OK
九州
大字
過程
あき
シナ
##チョ
com
見られ
ボーカル
わずか
たん
藩主
##モリ
引き続き
##カス
日間
自転
##ハー
強力
部下
No
– 
テスト
若い
##ペン
改修
協議
MC
カラー
抵抗
##デザイン
##ねる
オフ
ビッグ
事情
##ows
衝突
トレ
互い
でく
応援
マグ
##コミ
ビー
表面
もん
なわち
変わっ
##タイム
よし
達し
資本
法学
掛け
##ッス
初出
##ファイ
テレビアニメ
##wit
サイズ
目指す
##ast
がっこう
正体
数学
岩手
訪問
ソビエ
極め
ジェイ
権大
取り組
せい
##換え
合成
国王
天然
東西
##ダクション
そんな
体験
保有
手紙
##ニューアル
広場
支店
植民
##オス
##キア
もし
高度
##ドン
募集
ソビエト
男女
見て
要請
##ケート
モンスター
祖父
スペース
##マル
協定
図書館
コラボ
ハンガ
##フィー
東洋
##ey
クライ
つまり
翌日
生み
譲渡
長さ
緊急
##ソナリティ
らしい
締結
メイ
スイス
居住
ビジネス
諸国
テロ
##りつ
合意
側面
悪魔
##ens
進化
グレ
メッセ
かわ
##ケン
アント
##ージェ
東映
申し
学ん
##az
ジャック
カタ
モスク
北京
実力
集落
Wind
ネタ
ケース
AN
当たる
先行
戻る
##エティ
アウ
##シル
エジプト
ボク
町立
見つ
義務
書籍
Go
ジャー
格闘
##ah
各国
貿易
ドゥ
栃木
##クシー
しん
##かせ
ワシントン
修道
終わり
ベルリン
コメント
スティー
ハル
ハンガリー
イオン
中世
##ix
ケン
南西
Pr
午後
描く
##フィア
停留
インディア
リニューアル
手法
##リル
従事
発達
##ーナメント
やが
ボール
##ウッド
ダー
入手
##パーク
代理
##リウス
##ial
##通り
LIVE
全米
提携
深い
終え
ロバート
絶対
コル
警備
トレー
個体
幼少
暗殺
動作
取る
##きり
まさ
両方
##マイ
##ヴァー
##ヌス
イス
売却
nd
中山
##KY
バレー
全長
きっかけ
心理
脱出
##上げる
##age
ロケット
投入
際し
##やま
アクセス
生まれる
Su
にく
再建
パイロット
業界
北西
本当
##テインメント
for
アイス
ガー
レコー
##ld
フォン
渡り
コミュニティ
カトリック
流行
##ッピング
SE
##モード
あなた
上野
出さ
多様
演劇
ファイル
##EST
地帯
着用
公表
女王
高知
##ルトン
##フォーム
オフィ
確立
転換
うえ
境界
歴代
##サンゼルス
バレ
教室
平方
ギリシャ
大部
こうし
傘下
買い
Be
たけ
投稿
約束
PR
##UM
アルバ
メガ
##セント
##ツェ
ロサンゼルス
コミック
授業
放射
池田
連隊
普段
コス
芸人
笑い
マラ
ローカル
##ージュ
##ドゥ
##OP
講師
##UT
生放
##うち
##バンク
参議
信仰
規格
生成
進む
ミュ
専攻
離脱
上映
民国
職業
アム
##ガス
前半
##ヴァン
グランプリ
伸び
連携
集合
観客
クロス
往復
ペル
クリア
大きさ
##ide
Con
人工
##エンジン
かかわら
AC
テク
午前
スロ
止め
水曜
赤い
##ンジェ
師団
昇進
必殺
活用
##よう
ムー
無線
金沢
##ベット
##つき
同士
##ith
北東
##チーフ
YouTube
スイ
マジ
##ポーター
トーク
##ライズ
##ノス
##会社
政党
起点
下記
フィン
補助
グランド
吹き
解体
##合っ
最優
##メイト
子ど
恐れ
LO
作目
態度
##おり
トヨ
世帯
ジョー
不安
よい
殺し
##リオン
ソウル
答え
キャリア
##ケットボール
人形
劇団
##イレ
##ang
##クラブ
どこ
##コース
ワールドカップ
古く
護衛
遅れ
選抜
リア
頭部
具体
ワイド
実質
現存
繰り返し
手術
放映
##センス
##とう
終盤
明る
鳥取
守備
悪い
社員
##ーロー
閲覧
予想
国境
発揮
冒険
トルコ
IN
収入
一時
徐々
ソフトウェア
+ 
ヤン
類似
しゃ
複雑
テン
働き
単行
社名
##わけ
栽培
隠し
解釈
##フィック
##サービス
##しろ
##IL
起こっ
落と
パイ
業者
##いち
早稲
読売
##どり
エス
モンゴル
カテゴリ
北朝
西側
クル
良く
西武
武田
EX
戦国
輸入
##タイプ
グル
サム
火曜
終点
創刊
新幹
続ける
市街
##iz
交代
統計
ベン
ナイト
##ポール
現れる
聞き
自殺
電鉄
##oh
正確
等学
ブラン
立候
アクション
渡っ
打率
##ロウ
##っち
戦隊
機関車
##セプト
Vol
三重
巨人
最多
評論
##ンジャ
コモンズ
仏教
続き
リスト
順位
##ice
再編
間違
Windows
重量
敷地
キュー
印刷
対決
センチ
##ure
箇所
##立っ
不可能
佐賀
死ん
争い
木村
大規模
付い
接触
グロー
##ナス
ヘンリー
人員
ファッション
to
かん
レコーディング
こそ
もり
キャッチ
佐々
歩兵
##ore
残さ
血液
##IV
ジャンプ
シア
授与
装甲
##っぽ
TR
ディズ
寄せ
とど
とえ
悪化
##カラー
恋人
病気
##GM
かかる
##ンドル
マイケル
##uc
恋愛
##ロディ
En
##ッパー
ウィキメディア
戦死
働い
爆弾
割り
絵画
新規
##ber
##クソン
おこ
性質
財政
##ニン
##ong
フィリピン
来る
初登場
銀河
神話
ラブ
養子
##pp
. 
AS
ラグビー
##受け
装着
レオ
防止
受け入れ
##ルター
ドラム
次男
勝負
容易
##分け
扱う
措置
月曜
決まっ
中野
当該
リュ
組ん
見せる
関与
ソー
フライ
コロン
伯爵
決意
ロング
脱退
出走
##ガジン
再度
証券
あらゆる
瀬戸
##くん
わたっ
まる
モチーフ
ヘッド
##コス
##ソー
マスター
アニメーション
AV
小野
トヨタ
たる
ギリシア
ON
Se
##立て
フェル
経緯
通う
興行
##フス
分子
引き起こ
ポータル
Mus
すぎ
##ートン
Gr
##ft
構想
標高
パートナー
オペラ
コメ
数字
殺さ
ダメージ
姿勢
##ary
##ストロ
レーベル
言及
##フォーマ
##AA
シティ
##ミュージ
##レンス
角川
退職
南東
##じょう
##チャード
ドラフト
大手
夫人
操縦
##ook
##世界
先輩
当たり
ch
暴力
MS
チュー
古墳
太田
生涯
解除
##つい
##ove
かも
コム
ユーザー
レス
即位
##モア
みんな
##one
づけ
開い
山梨
パス
以内
駅舎
##ss
ソング
劇中
##ステル
取り上げ
##aw
シャー
駆逐
##ユニ
名付け
明確
下り
商店
回数
様式
申請
保持
月刊
##らえ
どちら
全面
私立
該当
末期
楽器
ショー
帰還
五郎
SS
##ies
わけ
主体
異常
##tt
挿入
##リット
ませ
作者
とる
##ブス
塁打
意思
黒い
##テッド
遠征
新田
入れる
##フラ
圧倒
確定
シカ
CH
ポン
短編
アメリカン
バイパス
会館
軍団
##oy
早稲田
天使
##ストラン
イスラエル
##カラ
ライバル
インチ
曜日
災害
##民党
##ph
モスクワ
主力
信じ
再現
称号
著名
ジェームズ
イー
混乱
潜水
連結
##ボル
##IP
##ティス
自社
##しゃ
##ぐる
##ite
初め
局長
##バード
##ond
修正
Te
学研
保守
もっとも
白い
守護
気持ち
さえ
上下
愛媛
サイド
収集
戦艦
駐車
意図
考慮
##やす
さくら
ゼロ
監視
##TR
##べる
小さい
推薦
##ock
深く
駆け
##フィールド
エース
短い
ディズニー
国勢
目指し
幹部
スーパ
当日
書房
##EM
SC
合同
回目
プロダクション
くれる
タン
同月
##かす
##ドロ
##ミネ
がる
同期
学ぶ
象徴
パーソナリティ
ボル
かける
プリン
料金
費用
輸出
アブ
会話
##qu
平安
##ヨン
##NS
復興
スピード
##チス
スパイ
メッセージ
リング
がん
変換
準決
高松
いち
報じ
看護
気象
著書
学び
ハート
##man
AK
触れ
##フェン
激しい
##ai
##ラリー
ボディ
##ージャー
追放
附属
アミ
ウル
ランク
##ファン
加工
外部
思う
ボタン
ポリ
##ネシア
##ust
証拠
Br
FIFA
利益
最新
##合う
しつつ
やく
伝える
スタジアム
北朝鮮
突然
優先
両者
北側
最近
##ダイ
再会
アウト
侵入
##ワールド
上海
石油
かかっ
タンパ
##ox
発動
##ッティ
##PG
交響
後方
##ナルド
もしく
リスナー
盛り
取り扱
まとめ
機種
除い
オーバー
ジャンル
敗退
本体
黄色
##TT
権力
チャールズ
離婚
おも
ゴルフ
焼き
New
子孫
最低
奴隷
##立ち
依存
##ペーン
##たり
##WA
トーナメント
有力
本塁
SU
出発
デモ
印象
怒り
##witter
ドン
手が
許さ
長年
顧問
リード
構築
##エア
柔道
##ページ
抑え
##ザイ
バスケットボール
##ーナス
ブログ
スコットランド
幼い
有限
言え
重ね
##プター
公認
楽団
スプ
併設
戦線
漢字
称さ
違う
##ジャン
##ネマ
中島
歌っ
滞在
上陸
下部
滋賀
国土
岡田
活性
マシン
リチャード
##ザベ
al
問わ
食べる
つな
##ツアー
がく
遺伝子
##ナウイルス
AR
重視
##ーレ
空中
ジャズ
SM
日常
負担
材料
べく
搭乗
バラエティ
プラス
通行
アニ
批評
##回り
もち
前田
屋根
##マネ
抱い
##チル
He
和田
トム
測定
##フォーマンス
保障
議長
##ンチン
ブレーキ
振る
流通
##バーグ
戻り
基づき
示さ
突破
##せい
故障
##ish
伴っ
探し
アタ
##プション
##ステージ
予算
もとも
最強
発着
##ポリ
コロナウイルス
デンマーク
スタン
委託
楽し
##ヘン
##ug
一種
誘導
関心
##いう
##ッケージ
ヤング
代替
訴訟
当て
振興
沿っ
サル
マイクロ
なぜ
ノース
代後
探偵
特典
修理
##ットボール
英雄
ゴールド
直通
すで
上り
##ろし
上部
戦っ
##ちょう
ウィル
##ase
まり
事前
犠牲
セレ
ブレイ
抜け
故郷
不正
双方
移り
ドーム
天正
キュ
スマート
##GP
ファミリー
単純
会見
古典
食事
##メル
曰く
外見
Wor
起源
近鉄
あろ
音源
クイ
直線
##クタ
##ベン
規則
> 
##マッチ
キャンパス
ガラス
演技
フィルム
##IA
##リアル
おそ
##サイド
##チア
トランス
モーター
夫婦
生じる
ケイ
東側
閉店
 /
##なく
次々
高田
##公園
##ory
##ゲル
シナリオ
AL
タッグ
トライ
先端
しば
ピーター
信用
到達
地理
民主党
処刑
分岐
##ショップ
ドア
##ach
大橋
日記
##ージャ
##寄り
##ace
ドキュ
建立
ヒロイン
オーディション
今後
線路
親友
##iss
いた
エンター
大野
##APAN
援助
カイ
伝承
記し
証言
コンセプト
市川
SF
田村
発掘
部品
##ポイント
##ハム
アシスタント
共有
香川
引っ
文明
不定
別名
想定
マスコ
働く
台風
松山
火災
黄金
デス
疑問
経路
幼稚
特性
辞任
ライオン
特集
衣装
イスラム
フリ
Twitter
ロゴ
出席
任意
次い
ベルギー
マス
##ica
##KYO
マレー
ソニー
受験
アレンジ
OF
推測
##ンバ
##ツァ
##DS
山脈
春日
##っくり
盛ん
既存
越え
終わる
入力
観察
訴え
退団
借り
包囲
宣伝
跡地
出典
##アリー
取り戻
ケーブル
兼ね
甲子
解消
シカゴ
ブラウン
##ational
NP
パル
発明
##ニスト
パーク
屋敷
平野
代わっ
前方
国連
複合
ドロ
歌唱
DJ
出馬
取り入れ
##ゾン
シュー
相撲
行方
Co
コスト
##ソコン
Dr
温度
##なし
今回
無人
ニッポン
##セイ
後任
幅広
OS
占め
続編
ジャケット
CR
』 
住居
青春
抗議
##マスター
にと
立っ
##すぎ
BL
##アウト
つか
後者
ミッド
##KO
##向き
改札
文献
試作
TOKYO
忘れ
##リフ
スポンサー
じゃ
ポケ
一郎
区分
射撃
恐怖
##ブック
修了
##がら
##切っ
##ディオ
GT
大将
肉体
##メンバー
##すぐ
才能
願い
打撃
ハワイ
配備
ラスト
妖怪
ビット
CO
支部
語り
そこに
出会っ
メール
不良
##レオ
変形
前期
##イラ
アート
簡単
##ライター
GP
アキ
診断
北陸
起こる
資源
My
on
一体
攻略
##下げ
ライフ
隊長
フロント
撤去
##ウルス
##おう
プレゼ
地図
時台
##AX
##tern
失わ
落語
##フラン
UE
経過
ここで
ピエ
上田
##イベント
##クトル
フィンランド
詩人
避難
ヤク
神宮
進み
##ースター
##ment
##ディングス
ショート
定着
宝塚
実家
織田
ワイン
独特
##シスコ
##ミュージック
歌う
##ick
Play
説得
##エム
子会社
整理
研修
アマチュア
後ろ
にとって
国有
フィールド
マルチ
ポスト
相続
コレクション
冒頭
##イルド
カット
レストラン
校長
決戦
##ブランド
バレーボール
上演
通る
タンパク
##カット
とく
短縮
評し
南側
団地
隊員
Me
決める
青山
##モーション
##好き
Ph
尋常
走る
マイナー
サンタ
文部
財産
クレジット
和歌山
継い
西洋
ホー
##しき
##スポ
ころ
ユーロ
示唆
##ークル
タクシー
##イラー
ファースト
効率
村上
促進
出資
参考
美術館
ランド
折り
架空
##モール
海洋
掲げ
##ドウ
インターチェンジ
警視
##向け
司法
接近
プレミアム
加わっ
キャンプ
##シャー
シャル
原題
近畿
違反
##ビデオ
死者
##ージー
フィリップ
テキサス
パターン
半分
議席
##ire
開店
関数
##ニコ
ホル
奪わ
ラウンド
時計
合体
連覇
##BO
##ロジー
実況
攻め
Tr
回収
教員
症状
キロメートル
あの
AM
気候
##ゴー
##VA
スキー
蒸気
年代
##ナショナル
##ハイム
ポル
火山
自民党
##ビジョン
ML
在学
運航
##ッキング
厚生
号機
CS
はず
ホイ
学術
当地
##ジラ
ダーク
見解
トレード
差別
抱え
##まさ
##まら
##イヤル
修行
快速
水戸
といわ
だん
信長
功績
話す
##バイス
並び
##ile
大宮
衝撃
相次
題材
メカ
大佐
チャー
家臣
少数
用途
クリスマス
ノルウェー
##テイ
##カリ
ウィーン
エクス
国外
マリー
保安
解析
除き
##ウェル
審議
課題
資産
日々
##きょう
参謀
無かっ
発音
##ダウン
所持
##sh
ルイス
埋め
感謝
防ぐ
ミュージシャン
UEFA
回答
気づ
クリー
数々
松平
小川
チャート
ナショナル
期限
学区
アレクサ
不満
選定
##int
バイオ
##ウィン
あく
山崎
総督
表彰
##ath
##ert
Web
##FL
##越し
しょ
##テク
##民主
伝統的
プラン
中期
応用
分解
国防
##ivers
##ミル
##まえ
宇都
提示
遺体
##メンタ
ジム
破り
退任
ストリート
やる
市役
##新聞社
初頭
教徒
##サッカー
並行
坂本
自主
転じ
##エー
でん
アサ
メトロ
分裂
請求
##ナリスト
乗客
言える
##トラック
橋本
キャンペーン
なれ
ピン
実装
小惑
賞金
送る
道具
まち
犯人
##apan
##スティバル
イラン
セイ
放つ
苦手
##ロット
##エフ
トー
大日本
記号
がわ
ガイド
##取る
スカイ
森林
カウ
シンガ
大隊
足利
リアル
仕え
##ime
##直し
起こす
III
勉強
入口
手掛け
演じる
##ローズ
例外
打点
##ミック
取り付け
Sy
アリス
プール
周り
想い
##ンドラ
##ンスタ
ひとり
逆転
風景
ナレーション
##pe
アルゼ
低く
支え
領土
##St
素材
##テーション
海賊
野村
##かく
##oun
ミラ
入院
最中
函館
迎える
##TS
ミュージカル
友達
日中
ゆき
アダ
##IX
##ンチャー
##ッセル
##ジュール
しばらく
いえ
実績
死刑
いか
##クル
##ほど
主導
##ーマス
夜間
成田
開館
まっ
固有
描き
##uk
##テナ
MO
##rom
等学校
高級
ゴールデン
事例
近郊
##わせる
ウイルス
上回
全域
帰っ
長谷
ラ・
中川
質問
Ad
開局
##テンツ
CP
もと
別れ
慶長
##モス
球場
ピンク
近隣
教皇
正義
長女
##ホテル
##ノール
Col
JAPAN
Sc
地獄
語る
ターミナル
山下
次元
特許
特技
ごく
モル
売上
提唱
スクール
図る
研究所
派生
若手
パフォーマンス
大島
浴び
震災
難しい
##TC
引用
におい
パソコン
救出
ゴー
扱わ
雇用
創造
小松
Sch
デル
総称
ライセンス
And
市営
まん
ポップ
中日
在住
未満
高山
非難
コンパ
ヒーロー
変わる
女神
##ence
巻き込ま
エー
キャプ
##ニュース
ポンド
爆撃
融合
現行
つける
ポート
ユース
インドネシア
先頭
コール
他人
ヴァン
FA
ミッション
来日
Car
アルゼンチン
Wh
北米
戦時
ヴェル
合唱
損傷
開拓
座席
##コロ
##リード
広い
沿岸
##トー
##ヒー
トラブル
パッケージ
勃発
士官
多摩
相模
##プレス
小学生
倒れ
聖書
東宝
##シュー
##IO
##EE
作画
取扱
封印
送信
サウス
ブライ
勲章
次ぐ
需要
##シュタイン
リスク
ロン
倒し
延期
若者
高原
南海
電動
##チック
クリエ
セミ
降格
##レオン
ディレクター
秀吉
郊外
秘書
電波
暴走
頻繁
努力
塗装
##ブロ
KO
降伏
不詳
同僚
##エット
保健
小山
認可
ABC
Ed
なす
怪我
##ii
シンガポール
あさ
##SP
##止め
急速
ごう
市議
造船
連勝
雰囲
会計
当主
瞬間
厳しい
酸化
コムーネ
彫刻
終戦
##レム
にわ
占める
##NN
ジャイ
ガル
併せ
##バーン
もらっ
Love
CL
工作
改編
ウルトラマン
台車
実用
近づ
##バース
Par
Ex
はっ
##つける
ナンバー
運輸
チャレンジ
ふる
従業
東大
##キュー
##メンタリー
祭り
簡易
ウェブサイト
阪急
観音
地形
駆動
グレイ
立ち上げ
成果
東方
町名
立つ
損害
##イクル
体系
全線
端末
阻止
##レコード
BGM
本作品
要塞
豊田
魔女
おく
はじ
移民
関わっ
##CM
せん
過ごし
武将
逃亡
商人
師事
競争
##シーズン
生存
憧れ
##リム
##ベリー
ミステ
##ケード
全身
トイレ
気付
総理
##ーニ
##サイズ
ファンタ
圧力
琉球
味方
存続
##ier
##ディン
MV
及ぶ
賞受
##ーノ
大名
署名
##オル
イェ
得て
方言
##テレ
助手
##ニカ
大韓
安打
インディ
La
招待
トーマス
北条
若干
育て
Music
##ザイナー
HD
##ae
告白
横須
読者
あわせ
##シーン
エドワード
##レア
##エラ
ヴァイオ
スキル
##ッシャー
認める
偶然
##oo
持ち主
ウラ
テニス
召喚
後藤
##シオ
栄養
ファイナル
ポケモン
番地
目撃
紛争
都道
ロケ
##ヴィッド
ベー
正月
準優
覚え
##ont
任じ
##UE
OP
反発
広域
町内
アルファ
ドー
並ん
##ンパニー
スラ
創作
一致
戦力
##ンチェ
いつも
Ver
とつ
反映
循環
施さ
運賃
喫し
放出
エレクト
接し
日産
保育
実践
少将
軍隊
養成
##カロ
しれ
天才
王朝
##ッソ
ブルース
プラット
ラム
岡崎
衛生
オレ
倒す
怪獣
日立
同行
移植
降り
就職
プロテ
##isc
待ち
大地
消え
##ハラ
捕虜
将棋
##ps
上京
エリザベ
修復
社団
踏み
一員
最上
##クセン
NC
UN
権限
理学
コンクリート
ニュ
家康
明日
沿い
ドライバー
指し
マサ
正面
訪れる
控え
グロ
学位
有料
石井
LOVE
中隊
小倉
コア
##リュ
オレンジ
究所
山陽
##ound
当局
根拠
##ジーランド
GO
出産
勧め
馬場
高野
魅力
ディーゼル
検出
検索
Japan
シャン
##ost
不動産
位下
向かい
移っ
##イセン
ヒル
豊富
##けい
そのうち
元気
復讐
意向
##リンク
ビーム
家督
近藤
##リップ
東急
階建
##ーゼ
##シート
##デア
##っかり
##ンタテインメント
打ち上げ
SD
フリードリ
なき
登山
ニュージーランド
数多く
変える
セルビア
##返す
イラク
メモ
配布
##ニックス
四郎
番線
船舶
##III
スミス
表し
World
維新
縮小
ヴィル
Man
大西
徹底
心臓
##マド
コマンド
相対
避け
新幹線
行なっ
好意
##いろ
久保
予測
##ハウ
##フィール
ユニバー
民営
海峡
##ガール
##ールス
変わら
##メーカー
##ash
小さく
Or
亡命
装飾
##ニエ
##ium
 ※
会津
救助
要因
ID
##やし
挙げる
マツ
閉じ
開放
療法
##ee
やすく
ダウンロード
##ユニット
暮らし
オスマン
日野
繰り広
大切
##ッピー
もらう
エンディングテーマ
大気
応募
告げ
放棄
##教授
選ばれ
ミル
中断
嫌い
撃破
時刻
無視
関わる
名乗っ
HP
キン
切れ
義塾
世話
##AZ
ウォー
において
天王
慶應
DS
ネイ
キャプテン
##ステークス
ガイ
落選
ウェスト
タンク
アナログ
代々
捨て
インスト
ネオ
老人
初演
受信
悪く
##WS
##ーマニア
シド
外観
空母
##グラン
##ヘッド
カレッジ
基盤
走り
Live
スライ
吉野
##ction
あん
がり
スリー
人数
繁殖
COM
三島
##えん
##スターズ
ストライ
ハウス
威力
##IE
出張
シリア
マド
##キスタン
その際
RE
供用
独占
##アナウンサー
美しい
認知
##ョウ
学名
量産
オフィス
美少
菓子
##ガイ
容疑
本番
##TA
##OU
メタ
航海
魔術
##ボク
ディスク
トル
上級
官僚
車内
飼育
インディアン
入門
強調
破っ
##ケストラ
##いっ
コピー
ハンド
##じゃ
ワンマン
担っ
本項
考案
運命
高齢
Inst
マックス
コミュニケーション
たっ
もっと
レンタル
予約
斎藤
##ミックス
##アメ
##CE
来た
真実
##リダ
##バージョン
はら
##ませ
アトラン
保管
博多
終結
飲み
##ディス
IM
乗せ
##シングル
削減
移し
##ニエル
オーク
浜松
辞典
##また
何か
山地
課長
##ぶり
MLB
ED
在位
度々
配給
##ical
アラビア
審判
黒人
ロス
史料
チェコ
##フリー
質量
限界
##AND
エキ
兼任
暫定
##レール
フリードリヒ
宮殿
戦術
手伝
##ear
ホームページ
大谷
評さ
選ぶ
総務
##INE
カップリング
夫妻
駐屯
##レッド
!!
制し
前提
変わり
室内
排除
##ern
##ンジャー
寄付
王位
##美子
プレゼント
先駆
削除
後輩
転向
北方
変動
妨害
松竹
##ゲート
##違い
ドリーム
激しく
遊び
陥っ
##ソース
For
ほん
天気
手がけ
容姿
名乗る
AP
Joh
やか
ミリ
伊達
廃車
本土
毎回
親王
##大学
島根
##ann
タイガ
オプション
動員
補給
##ーバー
MUS
中将
年末
騎手
##ous
##サウルス
##シェル
叩き
薩摩
余儀
戦前
王者
NTT
ふく
地中
配属
たらし
##ACK
パーツ
##pt
Fl
木造
ルーマニア
入場
征服
Blu
ドキュメンタリー
一切
師範
遭遇
アンダー
アテ
不能
弱い
美濃
藤田
##ルカ
##フィン
半年
妊娠
集まっ
##よし
##まい
フィル
ドクター
出土
本店
受け継
きょう
##りん
##マラ
役員
期生
##マシン
##ART
##コーチ
騒動
##ニオ
インターナショナル
去っ
周波
直径
プロセス
医薬
監修
##ダンス
##すべ
##ボーイ
三井
不思
理想
積み
フィギュ
ハム
出店
##リウム
##ax
##hy
キャスト
##PER
小学館
クロー
マリオ
##イム
下し
刑務
##AI
ボン
仕掛け
感覚
敗戦
次郎
着手
##入れる
主流
役社
最小
甲斐
行事
アラブ
プロイセン
メン
任期
サウ
協同
属性
強さ
発覚
##えき
原画
成分
IB
図っ
クール
埋葬
書く
##オケ
##ve
##沿い
スカウト
こん
加速
ペア
乾燥
鉱山
##バッハ
##ドア
キム
読む
河内
ジェット
デー
入賞
ステーション
異なっ
or
教科
観点
講演
##ゾート
にくい
青い
レーダー
安倍
混合
##チナ
##カンド
おそらく
リオ
君主
落下
ので
制服
##ポリス
ダイヤモンド
上流
隠れ
おと
エフ
台詞
師匠
IT
上場
放っ
##書き
キャスター
博物館
売り上げ
vol
賛成
カフェ
パナ
向き
男爵
##クラス
rd
討ち
##ream
こうして
割合
種族
警視庁
まい
事項
再発
逃れ
##ーパー
##ail
フォーク
トレーニング
an
・「
再放
双子
成り
##バイル
オールスター
ペット
通学
##ram
##キット
ほしい
人事
宿泊
Ne
競輪
アベ
上手
前日
リク
乗降
拘束
幼少期
奏者
我々
編纂
##SS
何らか
勝手
員会
福山
粒子
不思議
DNA
渡る
結ば
##ビュ
コロンビア
差点
リト
尽力
##セロ
##ージニア
App
太字
##たる
航路
ショッピング
アプ
Ser
水素
失い
評議
##まだ
倶楽
文章
##リヒ
##ドール
##ERS
チュ
ヘリコ
リベ
公爵
わたり
上がっ
##ンジニア
バレエ
山岳
文芸
毛利
がきっかけ
築い
都合
ソフトバンク
レーザー
避ける
陥落
##テスト
//
##付ける
##インズ
MBS
二郎
広がっ
打者
洋戦
##oft
ベネ
人種
内蔵
出た
壊滅
大山
座標
##ool
##ザーズ
##mp
##ペット
##act
背中
飾っ
レジ
ヴァル
Comp
武士
cc
表題
補佐
##Hz
ボストン
夕方
オーナー
##ヴィル
延伸
戦場
警戒
##ッポ
当たっ
倒さ
##AB
選考
##HI
ざる
シンガー
改装
歌劇
IP
##ネン
タウン
##amp
正規
船団
農民
##つく
##ミット
クラウ
アグ
室町
紋章
中学生
歌謡
水産
##ガニ
コミックス
DC
re
ロッテ
並ぶ
疾患
##リズム
##OCK
魚雷
##しゅ
##ワール
##ank
回り
##らしい
生き残
ローズ
抑制
決し
##ナイテッド
慣習
番台
アポ
ワー
成人
無理
ギル
品種
数値
誇る
によっ
##ットー
コンテンツ
アーカイ
同意
墜落
書記
自転車
視点
魔王
交際
大津
扱っ
無効
謝罪
##アド
##ron
##ムス
ミュー
回路
抜き
数年
語吹
##ビング
Rec
県内
釣り
おう
自称
酵素
オリコン
地下鉄
めぐ
##シナ
##HT
##are
著者
カス
定員
焼失
電源
コンクール
ヘリコプター
守り
近江
野田
プレーオフ
季節
艦長
詰め
青木
##メダル
##ベニア
下車
##MS
東日本大
おき
使える
皇后
襲わ
##ics
コーラス
ボクシング
上杉
臨床
諏訪
##eat
##les
生きる
##ッスル
伊豆
顧客
##ナップ
##スタイル
総会
GR
with
ニック
天保
定める
阿部
##メット
そば
偵察
##land
##ゆう
ジャイアン
マンガ
大塚
重賞
##ガリア
##ina
国籍
通貨
面白
ちょう
ラス
境内
山城
庭園
##アニア
比例
気温
##Station
わり
モンテ
可愛
##リノ
##らせ
##ERO
小説家
マネージャー
当番
母方
##まし
シート
典型
確実
引き継い
スーツ
##ニオン
マンション
のい
ゆく
ツール
伝わる
横断
##パラ
##son
##テス
ままで
DE
大坂
推移
消し
##ニーズ
そこから
レンズ
大好き
聞か
##ヒル
##ザード
ウェイ
##んどう
原理
##太子
##ギャ
それから
センチメートル
バカ
確率
調達
##メイ
##コム
##インド
福田
##old
パンチ
交戦
介し
##デイ
修士
同作
htt
和解
山中
広報
神田
カプ
実在
##au
##ネー
##女子
マニ
乗員
愛し
開き
エリザベス
叔父
部員
##旅客
ミュン
刺激
空襲
負っ
##ゆき
フィート
フェリー
ニコニコ
コラボレーション
AD
NO
土佐
教団
##RC
ピク
下旬
##irl
階段
##グロ
内側
##リラ
保証
同等
歌舞
##res
##ノフ
##att
アラン
松井
決議
絶滅
##メイク
豊か
関わら
##ウロ
##ズル
##ミネート
流し
##エス
##ムズ
##づけ
Gu
ボーナス
喧嘩
天体
首位
##ターズ
##ンドー
##ずる
##ame
率いる
初出場
無限
心配
##KE
主役
前面
##ケー
アーケード
抱き
検察
物資
##ボックス
DD
小規
捜索
鹿島
EP
数え
突入
重複
ミシ
ヤード
##se
##ラト
キル
日光
##カメラ
PlayStation
Ab
ナチス
外れ
懸念
間隔
領主
WW
藤井
エミ
ナポ
大公
対照
フー
墓地
調理
##バトル
##じん
マガジン
調教
オーケストラ
##olog
ダイナ
AKB
但し
進める
##シエ
けい
原田
東武
正しい
##ドー
アプリケーション
##フスキー
あや
武道
につい
ゆえ
今作
前者
幸せ
##メイン
ゲイ
メス
##ろん
珍しい
ジョーンズ
代以
女学
担う
##リク
##当て
MP
内戦
水中
##チャンネル
ヤマト
創建
化石
##っこ
につれ
制覇
盛岡
起こり
騎乗
死体
論理
ラーメン
もい
千代
推理
晩年
松田
肖像
##キャン
けん
人格
外野
##ky
##UB
バンク
予告
大変
水道
看板
バイエル
##アメリカ
リバ
全部
活発
プログラ
前回
踊り
##タイトル
サンフラン
人権
付ける
救う
##掛ける
高木
##ビリ
##コーナー
ちょ
分間
吉川
山頂
ドライブ
ノミネート
ロマン
信濃
##エリア
##キュア
モーニング
体力
アルバイト
させ
ハロ
動車
同級
後年
操る
講座
##もり
ボート
永遠
立地
騎兵
##コモ
相次い
姫路
東南
##ニョ
##コア
ジョンソン
検証
浦和
フレーム
シアター
ナポレオン
サンフランシスコ
ずれ
一貫
##うる
##ance
スマートフォン
代初
欧米
狙っ
目立
ヒトラー
On
ヨハン
##グラス
配下
##ood
##チャート
Qu
あお
アダム
性的
込め
出撃
加賀
純粋
捕らえ
要望
##すけ
プロト
ゲル
マスク
最古
高め
##ヴェル
分校
通勤
##かつ
##なわ
##ject
##ペル
ガリ
両国
##ナント
動力
名鉄
天神
フロリダ
カラオケ
外側
死ぬ
婚約
侵略
ウィン
吉本
育っ
コントロール
ル・
大衆
##っぱ
ジャーナリスト
どんな
キハ
ロイヤル
挟ん
牧場
結論
野菜
集英
黒田
##らす
ならび
ブルガリア
スピン
ずっと
初戦
所長
新作
牽引
解雇
儀式
構え
PL
コネ
行使
##ズマ
アルコール
グレート
ハイン
合わ
Lin
キーボード
vs
喪失
地面
着陸
考古
オオ
動機
祖母
##グル
##チャンピオン
##ージェント
昆虫
有機
美人
##MA
修道院
公社
##務員
バランス
学問
整数
沈没
見な
UFC
by
リトル
演説
環状
##ild
##ode
表紙
##ゅん
オム
個別
専属
##ズミ
##ヴィス
置き換え
NBA
カム
マッチ
上げる
緑色
降板
JC
ラウ
学的
一旦
明石
法案
渡し
ポケット
問い
本種
回想
水上
背番
読ん
##込め
EN
かく
##SC
##ATION
##ツィア
大事
被災
財務
配慮
開く
##af
##わし
##ジメント
##れん
ジャクソン
MUSIC
史跡
探検
旅団
調べ
##フォー
Intern
アーカイブ
みる
タワー
参入
敵対
本物
クロア
##ake
BOX
外科
##orn
述べる
ヴァイオリン
パワ
復元
##ラド
##まく
かみ
ダウ
ママ
石田
職人
##ずみ
##mer
##stem
分かっ
液体
走っ
遠藤
飲食
##リエーション
か月
出生
商号
白人
BE
三つ
学年
ミー
含ん
王立
順次
##ッラ
##MC
しょう
業所
西村
親子
##ホン
##ヴィア
ガソ
ユナイテッド
ノート
大蔵
総裁
覚醒
集める
Is
Mac
伸ば
模型
監査
##ッシー
##張り
##グマ
##ents
ノン
言動
小惑星
代行
##チオ
クレイ
京阪
号車
##どう
診療
##トレ
##ローチ
はり
倉庫
##ストア
序盤
疑い
長らく
##ラジオ
ショック
##ult
タイガース
だり
エロ
仕組
出雲
切っ
目覚
##ょく
チベット
高架
##レンジャー
たけし
道場
金額
マラソン
John
宮廷
就い
特化
砂漠
軽量
部族
飯田
##オリ
##ボス
##ount
会談
語圏
##シスト
##ノコ
##ロイド
すら
歩行
長岡
##モー
フォード
リズム
##ome
##ジャパン
眼鏡
##いん
シンボル
主宰
出入
区画
##ウンス
##ale
バスター
セン
人材
巡洋
照明
サークル
付与
大久
救急
確か
タッチ
大河
寄り
対処
幕末
模し
##ベーター
##EO
##ブリッジ
GI
とおり
・・
勇者
天下
密度
改組
楽章
高崎
##ギア
マルクス
キック
セカンド
共著
南方
身分
食料
##ほか
##キャスター
##かわ
##ros
ユニバーサル
セーブ
ワイ
単語
歌い
本塁打
スリ
スル
ミネ
東芝
法的
##ギン
コンテナ
コート
バイク
##ロフ
どれ
ふじ
プレス
欲しい
チョコ
まも
メタル
司教
無事
##ーリング
エンド
モハ
空手
車線
追っ
##まち
El
NA
SL
僅か
水泳
法則
皮膚
##ゴール
##orm
スズ
ヘビー
筑波
誘拐
長距
大聖
施工
校名
福音
従い
##レスト
とん
歯科
##ux
によく
##ンジョン
##ヴェン
ゴル
公国
新潮
真っ
短く
##ほう
##ディスク
レン
##デター
##ower
がち
主任
当然
##クトリア
レイン
##ベリア
バイエルン
ベルト
岩波
恒星
聞く
闘争
##ton
##oci
Fran
併合
土木
AAA
さか
##リャ
##モニー
ディス
##ンダイ
砲撃
##ヴィン
メジャーデビュー
毎月
漁業
耐え
##ヤン
チェック
命中
発し
角形
題し
##ゾーン
ストロ
必ずし
後部
##ヘルム
##ゲット
PV
周期
法第
野生
フェア
みず
勤め
増大
業績
稼働
ミュンヘン
つつ
春秋
水平
薬物
クロアチア
ダニエル
公益
奇跡
海水
衰退
##ジュアル
併用
幹線
治安
経歴
路面
##ランキング
マップ
流用
重傷
集会
ray
定年
非公
##ッシング
##コピー
##文字
テクノ
コメディ
ちゃ
みどり
コウ
囲まれ
大い
##edia
スコア
レビュー
明かし
横山
##iel
グラフィック
ヴェネ
住人
##ぞう
— 
寛永
特番
上回る
##UC
ターボ
ジョージア
All
くん
断念
超人
##シオン
##エンド
##ペラ
##ごう
##ローラ
品川
##自身
##ition
##ise
しかも
はっきり
介入
佐野
学長
現状
細川
退役
##ライバー
かね
後日
講義
##マックス
レーシング
すでに
冬季
日向
##しかっ
裁判所
シャルル
テル
ビール
大輔
州立
支流
神学
##キック
##ict
##itt
考え方
アーサー
刑務所
やめ
妖精
建国
施し
退社
##ニズム
##タール
立候補
ジャイアンツ
休日
新築
神殿
総長
ナビ
住友
大田
忍者
##クール
##ork
住み
奪い
従軍
菊池
通路
##ッセン
返還
長編
コンス
呼吸
幼馴
深刻
重力
##リンズ
浮か
##なう
##バキア
##ナミ
アパート
上がる
中等
報酬
常務
荒川
酸素
##オーバー
日付
賠償
##sp
##コル
##スポーツ
予報
抗争
撃墜
汚染
飛ば
世間
大都
島津
モニ
覆わ
##HO
##さま
マジック
アバ
果実
省略
評判
##ベール
パーティー
挨拶
熱帯
繊維
##テール
##プール
##クトリー
ボラン
正解
##ッヒ
パネル
ベンチ
メアリー
所蔵
滅亡
##メール
イエス
同大
教養
送られ
ライヴ
##ott
日曜日
##ベスト
こな
ひら
佐世
安田
舞い
もか
最下
桜井
スポット
Met
改築
買っ
ホット
##ベイ
改訂
##タリスト
##らん
パック
ヨハ
国語
統括
##AST
##ree
クラン
救援
管弦
豊臣
上述
兵衛
尊敬
at
いえる
加える
原料
立体
芸名
開け
##ーラー
タイヤ
キューバ
BM
Bar
グレード
大尉
天国
川上
白石
荷物
農林
運河
##ボーン
共産党
インス
ボブ
早期
##anc
TOUR
つと
ガールズ
中核
体内
官房
##リティー
セントラル
客車
残す
筋肉
##ベンチャー
##ザス
##きん
共和国
不定期
違っ
Ge
トニー
プル
旭川
町駅
##bo
##たれ
##ung
弁護士
Sm
クルー
##oll
あたって
ar
脅威
都立
##ハルト
サイン
ヘイ
ワル
府立
筆頭
##ちゅう
HE
ブーム
容量
##ホー
ラリー
奉行
標的
電撃
##レラ
##げん
における
SUPER
見舞
##コフ
Op
OVA
ロボ
鑑賞
##AF
##まん
ブロード
コンテスト
シネマ
在任
コーヒー
サンデー
##ogle
学級
最年
##フライ
取り組み
PD
朝廷
正教
浅草
スティ
内田
厳しく
携わっ
暗号
海底
港湾
牝馬
追跡
##up
##yn
スイッチ
固め
小島
特異
電池
##ニウム
##動車
アナウンス
ここに
グローバル
中京
乗る
今井
小泉
手続き
解任
ロックバンド
マレーシア
エディ
メロディ
熊野
習得
ルネ
介護
殿堂
滑走
##セロナ
カンパニー
告知
天井
盗塁
精霊
体育館
AB
ターン
リポーター
司馬
把握
滅ぼ
町田
##切る
アンケート
ステップ
セガ
有利
漫才
製薬
##リヤ
##乗り
アンナ
SO
奨励
早い
楽天
##ッサー
こんな
むしろ
交点
広範
##ゆみ
##ータス
見つかっ
下位
支社
敷設
望む
神聖
LE
種目
##ギス
たらす
##ッセイ
充実
合い
浅野
異名
老朽
##ちらか
イースト
完結
発信
箱根
結晶
##パール
カロ
本田
##データ
いれ
全般
好み
着工
被告
##タス
##ナンス
フィラ
アイデア
##ECT
京王
島田
真理
バルセロナ
圧縮
多用
貸し
なぎ
封じ
指令
##くる
##世代
##ディエ
すべく
カスタ
借金
ヴィルヘルム
マドリード
あえ
中出
特撮
留まっ
耐久
電所
##ワーズ
##ホーム
スティーヴ
人質
招い
##クチン
今度
樹立
Part
伊東
同国
柴田
警告
pro
こく
住所
広げ
満了
異動
行列
##LD
ハーフ
キャッチコピー
再婚
合戦
緩和
##row
##ade
データベース
でし
切断
化粧
職務
電化
##ke
主題歌
ONE
セブン
使え
川口
殆ど
甲府
##病院
トウ
ブー
後退
浜田
生前
親交
令官
法令
窓口
興業
週末
##グレ
タカ
究科
シルバー
ハリウッド
定数
食い
プリンス
将校
生態
##エンタテインメント
##民国
AI
ソル
届け
論争
遂げ
過剰
銀座
##オール
カメ
ビュー
制約
年金
残留
発症
詳しく
##ere
##サンダー
下流
化合
葬儀
麻雀
シドニー
RO
グッド
専念
標本
誤っ
準決勝
BR
キス
予防
分散
失う
就航
無関
部位
##ブリン
プロモーション
##ンスキー
オープニングテーマ
岡本
車種
転用
違法
##ラーズ
クリスト
ゲート
玩具
フォル
さき
でしか
ゾン
ハリー
大井
拳銃
生かし
##LS
スタンド
インテ
ツイン
##かける
前線
奪っ
遠く
##めい
Ac
先代
大作
進歩
アダルト
Mic
ハウ
最寄り
##プトン
WOR
守っ
恐竜
星野
討伐
顕著
繰り広げ
EC
チリ
マキ
四国
国大
比率
面し
ブラッド
美女
##ords
あし
こだ
助言
食堂
##ife
動く
ホールディングス
地質
流出
航行
##アスケート
上司
抜擢
明か
生え
配列
トップチーム
挑む
爵位
背後
認証
譲り
##AGE
ミステリー
(『
おば
かず
たかっ
みや
交易
プラットフォーム
入居
##ユー
##抜け
バージニア
洞窟
潜入
##ラマ
##ナーズ
##ley
DR
丘陵
及ぼ
至ら
##フットボール
ウィリアムズ
生み出し
BEST
バッ
尾張
者数
防災
##リアス
チームメイト
フェスティバル
##プロジェクト
全車
手権
捕獲
##MI
 :
上院
不要
列島
西暦
郷土
##ープル
ニー
リメイク
技能
科目
適し
##上がっ
##ぼう
チャンス
あか
バット
モント
出品
友好
品質
限られ
##ヴィチ
ピー
ミズ
怪物
海兵
##ニル
##シカ
##たい
Gre
バイト
赴任
##コント
##ign
Off
景観
熱心
##グランプリ
CG
でしょ
どちらか
個々
ホンダ
厳密
湘南
誤解
##プライズ
グア
商標
投与
マーティン
PH
sh
モロ
慶応
株主
##ミナ
##ress
ミラー
奪取
市北
敗れる
##らっ
まつり
TS
市電
性別
##セフ
割り当て
セックス
互換
帽子
##パイ
##ゴリー
ダブルス
##テイメント
ガード
変異
東山
追わ
##ガード
FL
博覧
捉え
締め
##リッツ
##ンスク
甲板
紅白
統制
領地
##行き
##ark
意志
##詰め
##enn
知り合い
セルフ
市大
アロ
南京
振動
ジェネ
取り戻し
FR
のび
ケンタ
バグ
佐久
根本
検定
##飛ば
取り組ん
体操
南極
##アント
We
ゴム
台北
婦人
小笠
船体
辞職
##時間
シェア
体調
同地
庶民
権威
##we
jp
イチ
反撃
条例
種子
大学生
食べ物
貴重
##iam
ストレート
サクラ
石炭
突撃
##rum
ISO
一族
中退
唱え
成し
##oot
##ソル
##ブルー
似た
自信
赤色
越後
露出
チャンピオンズ
sp
除去
そも
捕手
新日本
狭い
移さ
##アイドル
##リーフ
元禄
内野
##ウマ
できず
チェーン
##ALL
傍ら
垂直
宮本
民衆
##上がり
kW
キラ
中盤
備える
式会
民俗
クリエイ
アピ
##トロン
##エンス
ギタリスト
中旬
名人
懲役
気筒
ドラえ
なつ
少佐
細菌
胴体
都内
へい
ボウ
勝っ
水野
父方
##フロ
##なみ
メイド
レール
反射
教区
暗黒
要する
阻害
ルパン
##ema
Univers
不在
個性
尽く
広大
##PS
リトアニア
As
債務
##パック
##ドルフ
満足
石原
魔力
##ーヌ
##ストーリー
ダービー
アプローチ
県庁
西方
貨店
##コンピュータ
もらい
##トリー
##KI
##きゅう
下院
辞退
社会党
Google
思考
知的
近世
##学園
##続ける
大王
新曲
王妃
起動
##ason
サスペ
メダ
止める
町大
##ンジュ
##チンコ
ブック
ミドル
望ん
森田
発注
競合
車庫
##フェル
極端
申し出
みち
スロー
力士
芝居
名乗り
カウント
役所
##きれ
美少女
宮内
限ら
##メタル
##エイ
てん
エンジニア
祝日
統領
酒井
##ンタウン
##own
ペンシル
バルト
三田
上空
藤沢
クーデター
マスコット
it
× 
シミュ
メロ
ランダム
良好
解答
陰謀
##ピュ
##ゥー
太平洋
おじ
テープ
ネコ
出口
契機
安藤
重大
頂点
##しめ
##学者
##っ子
##スタジオ
想像
##ネットワーク
ドミニ
伝達
使者
国分
星人
礼拝
##マト
同局
襲い
要件
##デュ
##KA
ファル
##キュリティ
##ピューター
振り返
SA
you
シロ
旅館
##UD
アルメ
こど
だら
サンド
帰り
正当
流域
神々
藩士
転校
スプリング
作ら
忠実
技法
語学
##プレー
USS
Ag
Mi
カレー
バク
概ね
金銭
##ニクス
ギャグ
##すべて
Gl
NET
役者
濃度
療養
##ケティング
VS
ハンター
モバイル
初日
十郎
洪水
##アート
##セラー
##らわ
##ンチャ
##ジェット
エレベーター
チン
不振
他社
斉藤
曲目
プロレスラー
WBC
アリーナ
受章
哨戒
大東
弾薬
感じる
生年
見送
郡山
Ann
トマス
加わり
志願
書館
金庫
##ッペ
クリスタル
引き起こす
ヤクルト
マット
リモ
新生
適応
およそ
##プロデュー
##リューション
加わる
絵本
アンソ
##ames
ムス
ロマ
展望
数少
笑顔
発電所
IV
イカ
反面
右手
白色
##ベート
##ダース
##VER
##渡し
エスト
乙女
原型
正室
##シウム
わたる
##グラフ
ジー
立法
策定
羽田
##下ろし
##ックル
##ヒト
##レイク
イスラーム
受容
国軍
失点
工芸
社内
音響
##ケイ
##ward
グラウンド
マスコミ
優しい
金子
##マガジン
コンサル
タイミング
ティー
CPU
ブライアン
バリ
付加
党員
売れ
引く
準々
##GA
##GE
##ューン
##ヴィヒ
##んじゃ
ゴジラ
電磁
##ヴィー
ウッド
ハミ
商工
連動
関わり
ファー
カレン
グラス
レディ
初優
突如
##ムシ
ガソリン
小屋
##笑い
アイヌ
オマ
撃ち
駆使
##ークラブ
オリックス
城下
実戦
RC
構内
##IVE
イル
保全
倫理
家系
組み込ま
わたし
悩み
ストック
##ジェリア
声明
浄土
##クイ
ピエール
ゆかり
富田
廃棄
牧師
誰か
##デント
##プラス
##ステーション
交通省
幼い頃
ホラー
##カナ
##スペシャル
初版
団長
最適
##ピオ
mi
奪還
書類
許し
##ダス
##ental
##ンジェル
おは
パロディ
ベラ
ロイ
立川
識別
首長
##AVE
One
うまく
イオ
ケー
中原
医科
河原
System
たつ
メモリ
ロビン
##HC
##セッツ
ダンジョン
ワイルド
入植
撃退
白鳥
##デラ
##まつ
SHOW
ボランティア
リゾート
##ロル
クラスメイト
余り
友情
抽選
支える
明け
海戦
逃走
##ンダー
引き上げ
サウンドトラック
便局
町長
貫通
デラ
科卒
西鉄
##ビット
アシスト
Comm
クイーン
Will
のく
妄想
継ぎ
高める
##住民
ウェールズ
アッ
メリー
メニュー
光線
王女
##ナラ
##ans
##ara
NAS
WE
カート
フットボール
ヨー
出題
累計
##yl
ボリ
信者
基金
寄贈
熊谷
過激
##ラード
##ays
パーセント
コロナ
ペルシア
Ass
側近
安政
採択
沿線
符号
##カーン
##キス
ファンク
グラビア
排気
##ana
さく
ラジ
喫茶
城主
排出
赤坂
集まり
##アカ
##ライダー
##スクール
プログラミング
一気
各社
大相
寛政
市制
##さき
##fer
##みつ
免疫
狙う
軍艦
##サギ
そうし
##サイクル
あたっ
思い出
Mr
ア・
オタ
パシ
マカ
掲示
総額
駅名
##pl
##ボウ
It
下関
並べ
化し
生中
秋葉
見出
誇り
##yo
##チューセッツ
不安定
ヴェネツィア
ME
大森
河口
物体
##TER
##キル
##時代
##寄せ
Cr
探す
活かし
豊橋
部卒
##ネイ
##ッチャー
取り扱い
マサチューセッツ
International
Mo
サト
招集
新しく
最期
獅子
近衛
##ism
比べる
外務省
強度
花火
##ビッド
##デルフィア
パイプ
Apple
バナ
左翼
和泉
大震
定理
市西
ユーゴ
見なさ
交付
支線
真相
艦艇
薬品
集配
ツイ
定時
若松
英文
##und
##ドニア
テキスト
コイン
伏見
低迷
怪人
決断
透明
フィギュアスケート
TKO
たれ
助ける
注文
淡路
JRA
Jリーグ
la
エコ
美容
背負
##ロボ
初優勝
サント
公的
村立
起訴
アンテナ
##ハンマド
はん
ダイア
中東
任さ
本質
焦点
登記
親衛
農家
##オープ
##デート
らしく
事典
享保
用水
素晴
##ざわ
##ノキ
##ink
公募
大江
大神
払い
消化
##ンガン
フィラデルフィア
内陸
農村
面倒
飲料
市役所
リクエスト
JA
拉致
探索
池袋
##ソウ
##DA
受け取っ
落ち着
アウグ
佐伯
夏季
本数
##かせる
取れ
幼児
泣き
視覚
##ワークス
##チャーズ
ショップ
MF
Night
勢い
呪い
戸田
水域
##ヌー
##ino
UF
is
中津
宝石
市町
恵まれ
水準
 )
Air
エリック
ココ
両手
増設
服装
##ys
##ちん
##ARD
Res
いろ
イノ
情勢
救済
##GO
セラ
急遽
##民主党
ROCK
密か
##ンシー
##公演
たらしい
リッチ
勇気
母体
ランクイン
丸山
山内
船橋
重工
##ピング
・・・
同志
稲荷
シングルス
アール
デザイナー
出荷
卓球
巡る
摂取
##グリ
##大阪
##ニアル
朝日新聞
ドラマCD
##able
楽しむ
Pre
おさ
公民
名目
接する
津波
アンリ
もちろん
Mon
me
テオ
リタ
上方
変遷
実態
広がる
打っ
次官
目黒
駐在
##作り
プリンセス
ファンタジー
##ハウゼン
feat
ゲージ
レシ
中田
外伝
早朝
永禄
管制
##app
京成
射殺
小隊
干渉
広瀬
府中
由紀
落成
ヴォー
NEWS
セリフ
バーク
同校
洋艦
火星
##YA
ヴァイ
Girl
だし
シード
デュー
土壌
弥生
持続
鎮圧
##まで
##ディアン
##ンガム
オフィシャル
支給
木下
アパ
アーム
悲劇
時折
本国
西川
##バマ
発現
越前
##ya
##年度
ライオンズ
がみ
多少
後楽
GM
ドレス
パレス
ベア
メソ
レオン
内海
田原
禁じ
竹内
誘い
##モンスター
##ばれ
##XT
##ショウ
過ごす
コンスタン
会い
破産
ショウ
Per
制施
抱く
曲線
立憲
##ーニャ
##リッジ
##ジング
##ツォ
しろ
世田
因ん
市販
海域
ドラゴンズ
かな
コラム
リレー
会合
実写
復旧
転落
##レクト
##ヴァル
乗り入れ
ボーイング
プリキュア
合理
基に
大辞
捕食
##ざい
Tom
サイク
上がり
区内
松尾
西宮
革新
##ストップ
ジン
ベッド
前橋
番手
プロフィール
##キャスト
押さ
推奨
追悼
##揚げ
イケ
中立
力学
源氏
##ひろ
##抜き
##ショット
##ンチェスター
ゾーン
弘前
繋がっ
##ナリー
##ぶん
またこの
分かる
弱点
待っ
見方
アンドレ
トランプ
シンガーソング
会っ
寄与
減ら
見直し
達する
##GB
停留所
Gen
UP
ドコモ
パパ
回る
踏襲
##ビアン
##hel
au
式典
##フィス
ビーチ
サッカ
可決
招き
松浦
とりわけ
Rad
シグ
大石
手塚
氏族
法廷
流さ
習慣
辞書
那覇
チップ
割引
奇妙
欠点
軽減
##レーン
##IB
##ュル
##ンダード
Mag
iP
ビクター
ヨーク
口調
太子
旗本
浮上
運搬
##タント
制圧
吸血
技師
秋山
##ブール
##her
##通し
アンティ
Inc
シンガーソングライター
Net
最長
自作
##コート
##ウザ
##ini
##ari
努め
好評
改題
本町
紀末
絶望
薬剤
さと
エマ
ビート
住吉
帰る
牧野
賭け
##シュタット
セリエ
バリア
ミスター
市東
松原
豪華
貨幣
釈放
阿波
##de
##ベック
##IGHT
DO
ボックス
右翼
外務
##スケ
##roid
##カロライナ
EU
War
パキスタン
平面
損失
角度
高岡
##フォース
繰り返す
ヘリ
梅田
金田
チャイ
##レンズ
Art
バスターミナル
ユーゴスラ
Rob
チーフ
パンク
全日
回っ
彗星
新社
皇太子
##しゅう
チェル
カーブ
カ国
ポスター
代前
入隊
巡っ
引い
改定
無所
調節
##ワース
##かわら
##振り
あらか
増し
増える
植え
津田
カルロス
アフガニ
アース
クラーク
ソース
ハマ
ビリー
内外
出入り
平行
所領
投球
校卒
育ち
##クリ
付く
光学
本堂
村田
校区
横綱
済み
##カバー
Her
みつ
久留
冷却
後初
手前
骨折
##マンド
ストーン
ショット
キャラクターデザイン
ピアニスト
アフガニスタン
Ind
et
マケ
炭素
真面
薄い
##ニッポン
##ポレーション
アトランタ
出向
単発
噴火
永久
秩父
虐殺
農場
##ヨー
ロール
工科
巻第
役職
撃沈
転生
##取られ
##ATO
ガラ
セッション
乗組
忠誠
括弧
格納
満州
演習
降下
##ゥス
オールナイト
##UND
かかわらず
専務
笑っ
魔物
わせ
ダ・
不利
仮想
小児
幽霊
手続
月間
緊張
##おか
##ぎり
せよ
みられる
カジ
チケット
木材
火力
目論
貧困
##明け
ジョニー
##ッテリー
小規模
ピラ
右側
因子
左側
日程
没し
ストラ
サーキット
インディーズ
たろ
ピカ
屋市
川越
聞こ
##ゴス
##づくり
ガール
ミカ
工房
苦労
ターゲット
Amer
Do
グリー
ムハンマド
ラッシュ
全集
決着
没後
量子
##限り
##ランプ
コンピューター
BB
後世
情熱
愛情
##フルト
##レージ
##落と
イ・
有馬
現職
##メス
##ric
##ぱい
##ute
起きる
from
タブ
一級
仮説
拒絶
種牡
貨車
都心
ジョル
SNS
収益
孤立
日蓮
河野
町域
関節
##トップ
##モント
##ぐち
##アイランド
ポニー
真珠
表情
##リッシュ
##イチ
##当選
Star
##IDE
ver
カザ
セキュリティ
ハナ
フロー
北野
同人
小中
小売
燃焼
##ばん
サンク
人文
府県
珍しく
野党
ランプ
倉敷
工藤
書誌
級生
青葉
##バレー
オカ
上旬
安芸
探査
薬師
##YS
フェリ
かぶ
わかっ
中小
得票
##サム
##テープ
##RO
めぐる
全曲
助教
左手
常陸
流入
皇子
素人
##バット
##返さ
##ator
おかげ
さつ
テイラー
ロープ
市道
究極
警部
電圧
アイドルグループ
Open
カントリー
マニュ
剣道
占い
囲碁
急激
被っ
隠居
##じみ
パーティ
Char
##ハイオ
Super
体格
古川
欠場
法務
著しく
部活
難易
VR
キリ
代田
寄生
訪ね
##ダイス
##セッサ
##ブリッド
バンダイ
主婦
優位
国産
歌合
真田
警官
##コレクション
##HS
##ソニック
##さわ
グレー
出て
弾き
本郷
用地
継ぐ
辞め
##IAL
##リーガ
プライベート
ツー
前進
大川
排水
転送
##UL
大使館
暮らす
コンパクト
プロテスタント
もかかわら
すみ
ノイ
兼務
所得
誤り
輩出
オムニ
傾斜
文政
旧制
補強
陣営
電機
##トス
Ste
及ん
歌わ
紀伊
組む
##ネタ
##レイン
##ラート
エフエム
目覚め
( 
Pa
フット
ワクチン
冠し
新校
治世
高麗
##ざき
##バリー
##ームス
##ita
##ose
引き起こし
ワーナー
市生
##びる
##ett
ブレイク
アルメニア
りゅう
アシュ
シニア
市原
松下
退官
ノーベル
GL
デッキ
収穫
独裁
矢野
風呂
ジェリー
##フェクト
しっかり
ボード
伊予
各駅
郡内
##alk
##トリウム
BBC
じめ
オイル
オハイオ
数列
調子
転写
どの
ケル
リミックス
原案
宣教
脂肪
近接
香り
##ual
cl
タマ
先祖
務所
換え
望遠
機材
生没
記す
踏まえ
##デリック
##ムー
ウォーター
ミラノ
DM
ダグラス
吹奏
結城
釧路
##ジウム
##ピット
クリスチャン
交わ
傭兵
平田
知名
院長
高まっ
##ナンド
##まず
##オープン
博し
和平
複製
農学
飛鳥
##ごと
##ato
Chr
ペンシルベニア
ユーゴスラビア
GB
Ma
やって
下げ
偉大
広がり
方程
木曽
正常
##ラスカ
Har
うる
ウエ
エントリー
従う
来て
爆笑
生育
首席
##ony
##ジャース
##ENT
スケート
サマー
シールド
ユリウス
安価
実証
対峙
強盗
政務
教える
朝倉
殺す
激怒
現金
通商
適合
##ライフ
フランソ
中佐
内藤
原稿
立花
##sch
##カム
##red
SEX
アテネ
MX
伊賀
先進
追う
##LC
TH
――
かり
ラップ
伝わっ
冷静
国務
染色
##オブ
##ましい
テレビシリーズ
##ッチェ
ツッコ
虐待
赤字
逃し
##ニク
##プレックス
ナイフ
倒産
新井
昼間
時々
水路
理念
自国
詐欺
返り
##vel
##渡さ
##ードン
##チョウ
CV
ボイス
中型
客室
##ave
ヴォル
##ーグル
代数
重点
##祭り
BD
Dream
ゼネ
ブン
国国
女流
実体
平凡
幹事
##ma
##ナード
##BI
MON
pl
協奏
家屋
尾崎
移設
繁栄
重い
##td
##テロ
##クロス
##ソックス
シャツ
##osh
NCID
ゾンビ
EAN
ノット
売買
奪う
正しく
爆破
軍用
載せ
##イール
##めん
##ファミ
##ited
##パンマン
エンタ
藤本
蜂起
##ディーン
プロサッカー
ウィルソン
シンク
パチンコ
好む
症候
##co
##しむ
フランシス
かえ
フュー
川水
読書
陸奥
髪型
##me
##インター
どん
ハリス
初当選
加算
受付
対空
除外
##レベル
##ML
##れい
##リーダー
CBC
ピーク
有形
渓谷
犯行
##CH
##っぷ
##ちょ
IBM
PK
ミハ
丹波
生理
聖母
負う
運休
シュート
##ホールディングス
かす
ペース
単体
危惧
営む
夏休
年不
採掘
##クシ
プロデビュー
フランツ
##ートルズ
マイン
ループ
作動
告発
書院
本多
##ッダ
##ノベル
##じゅう
OR
デヴィッド
##キャラ
ドラゴンボール
Project
あきら
##コミック
オックス
ホロ
仕える
口径
裏切り
##ka
VTR
ぼく
アーク
休暇
医者
菅原
親族
遅く
##いけ
##ミッション
##プライ
シチ
ダル
仲良
任ぜ
寿命
鉄筋
食糧
地蔵
対談
踊る
##アラ
##ルソン
##ドライバー
チャンピオンズリーグ
豊島
鈴鹿
##クサ
##打ち
##lex
サンダー
ディスプレイ
ふれ
便宜
大村
宇治
運び
##付き
北西部
とどまっ
ひょう
グッズ
上限
合う
戻し
越える
##引き
フィー
引き分け
##コミックス
ワーク
国旗
当社
投下
有無
注釈
軍勢
銃撃
飾り
##あっ
アレクサンドル
バッテリー
会会
区立
常識
服部
校歌
田辺
造形
陽子
プレミアリーグ
判事
名詞
基調
好ん
時空
自立
##ビィ
##IZ
Records
Sou
モリ
動向
双葉
役会
##めき
ギャラリー
あま
南朝
##じま
サイバー
どこか
Android
おま
コレ
タル
ハド
差異
歩道
白山
破綻
還元
##モーター
##願い
フェニックス
テーマソング
RA
オファー
クモ
スウィ
デカ
他出
勧告
密着
導い
必須
砲塔
高生
高額
鶴見
##CO
イラストレーター
Disc
Wii
se
多大
招聘
順番
高島
##ガメ
間違い
あらかじめ
Pe
エヴァ
トリオ
幾つか
強引
津軽
苦戦
##sc
##ポジション
##主義
##指定
ブルック
##ッケン
##スティック
グルメ
WORLD
High
MT
かかり
サタ
ホリ
上半
始動
据え
水力
燃え
疑わ
破損
映画館
##ONE
プレート
Spec
##ファイター
ha
le
あげる
ウイ
巨乳
祖先
##下車
##ater
##ッケー
エクスプレス
じょう
プー
ホスト
加熱
物館
迫る
駅伝
鳥類
##ぎょう
##ings
スティーブ
Bill
ムーン
店員
狙い
精度
西田
超高
##捨て
ゲームソフト
##フェルト
高校生
フラッシュ
ゆり
ゲー
ニンテ
ネク
向い
掘り
有罪
直営
石垣
##ki
##らず
ひろし
抑える
##しりつ
##ポー
##ファイト
##ニアルバム
Can
ケネ
一生
告示
市域
町制
鳥居
##プリング
その間
##フォーク
##キャップ
アントニオ
員長
揺れ
日経
条第
永井
磁気
絶え
##ニッシュ
##rap
##ッタン
##ケア
##ama
##ution
当事
新興
水艦
街地
返し
馬力
##テック
##ww
##サーチ
##プラザ
あつ
させる
バート
利根
功労
従兄
果て
棋士
満洲
発祥
矛盾
##スマ
##ブライ
##エンター
##inc
##lect
ザクセン
バト
名門
大友
異例
間接
##バイザー
ちょっと
ムスリム
仲介
公衆
商事
封入
成る
暴行
蓄積
##SA
ベースボール
スケジュール
JP
含ま
石橋
種別
邸宅
##box
オートバイ
こなし
エッセイ
ブドウ
作風
##ミュラ
AA
Ro
大原
幸福
拍子
格好
機に
直し
追撃
造り
ユニオン
レスリング
アピール
ex
名所
手に
狩り
##ダーズ
ハッピー
マイア
以て
原市
執政
感動
次期
秩序
金剛
鉱物
鑑定
##パル
##・リーグ
##ヘル
バーチャ
ボイ
マリン
レアル
列伝
換装
移る
見学
起工
難民
##エール
##ハート
ジェフ
乗用
新制
肯定
船長
集積
エリート
クハ
ゴン
放置
皮切り
立た
菩薩
電流
##ンデ
##アプリ
##ョー
##ersion
ニックネーム
こい
つる
サマ
名づけ
迫っ
##ヤマ
##フェンス
サーバ
短期間
北東部
Eng
最下位
内装
再選
増刊
広まっ
待機
担任
楽譜
生体
##リナ
##ype
##ストーン
##イトン
##oup
ナイター
DF
Ltd
よって
ピット
僧侶
回し
堆積
市駅
盆地
題名
麻薬
##メンタル
##ッテル
##AWA
アルプス
##ーマル
##ull
公安
賃金
##ぜん
##ピレーション
##ンジー
##out
ダイエー
##udio
To
工程
本州
##すら
ダウンタウン
FF
マウス
入部
進展
##抜い
##ASH
スクリーン
シベリア
ラヴ
ロウ
他者
擁護
狩猟
触れる
追求
那須
金色
##rit
##帝国
ライター
もうけ
リンカーン
いけ
カブ
ツェ
債権
北斗
在来
学士
補償
##ザール
##むね
いま
北上
岩崎
擁立
疑惑
相違
##ンタム
##ンジャーズ
MVP
ペイ
屋外
特攻
##タミン
##ランカ
##inal
コロム
ヤマハ
一塁
予言
半ば
寸前
枚数
狙撃
玄関
##yc
##さか
##DL
##ubl
落ちる
ブリュ
マネジメント
リュウ
ナレーター
ローン
主砲
入ら
後援
木製
本気
産地
駿河
##クレ
ISS
共和党
つとめ
あて
アビ
ハワード
増強
気分
諦め
フェラー
アドバイス
シミュレーション
かし
ペルー
メディ
勘違い
山陰
書簡
混ぜ
語源
##スピ
##FM
##文社
##レーベル
さらなる
切り替え
オムニバス
すご
とて
カタル
レア
下野
全編
大関
失踪
対話
本機
浸透
痛み
皇族
自在
##ジム
ニコラ
ドナルド
ハヤ
ホセ
勝者
連敗
##ガールズ
ジョセフ
見つける
一時的
お願い
市南
志村
所要
犯し
足立
開戦
##ミントン
##way
タイムズ
TE
ねん
ボルト
他国
動か
吸い
基幹
掌握
突っ
##ren
ガーデン
ハインリヒ
MHz
be
なぞ
タバ
伝記
喜多
大内
就役
武術
視察
遂行
難波
##コック
マーケティング
東日本旅客
ハミルトン
ばら
ウエスト
リハ
多目
客員
小沢
所管
検事
残存
知能
##グアイ
##ファイル
打ち切り
##すぎる
ポルノ
School
スプリ
ネー
レバ
同型
在日
本形
着け
行進
見事
観戦
野外
##air
##コーン
アルミ
##ンステ
ショッピングセンター
ねじ
ふた
エグ
デバイス
中尉
千歳
台頭
幾何
庁舎
最速
民放
醸造
麻生
##レータ
ストレス
##board
ビン
受託
実務
工夫
打席
本尊
略奪
採取
測量
##ロド
##上がる
##キンス
At
NFL
te
オト
テネ
マント
今川
入会
抹消
決まり
##ニティ
スタンダード
シャイ
LP
取られ
同居
戻さ
押す
拡散
朗読
行か
##うえ
##下ろ
ドメイン
フード
出港
少尉
屋上
概要
農地
シンプル
##ッスン
喜び
崩れ
川島
満点
神様
自覚
計測
遠隔
選び
##りょう
##ブリー
##ドライブ
##GS
アカウント
佐々木
ニンテンドー
www
嫉妬
川村
年上
弦楽
##que
##シュート
コミュニティバス
MA
des
スープ
パウ
ヒント
一家
公布
創始
単一
家畜
幻想
膨大
##わい
##ホル
##ロア
##ペース
##ローグ
##urn
コロムビア
ウー
エウ
常連
桐生
解明
##ノム
##タナ
##たま
##ットン
コミューン
##バイバル
##ELL
アレクサンド
ナポリ
バーン
内務省
専修
本校
標識
真言
高性
##ルーム
##RA
マーガ
ラインナップ
Don
交互
相棒
総監
西経
##くし
##ニール
##コク
##ツキ
アンパンマン
##フェスティバル
ヴィクトリア
ルーキー
コク
テーブル
バリエーション
免除
南米
挿絵
斬り
脱走
著し
表さ
##ボウル
ディープ
##っぽい
センサー
ナトリウム
ハイド
会委
合っ
捧げ
断っ
##ane
##ゴリズム
いじめ
カウン
クビ
パレード
八幡
志摩
控訴
##スタジアム
##aster
##ava
ポンプ
Hot
LED
ゆめ
大社
孤児
長州
##ins
フェイ
ステークス
##rans
Sec
ふたり
交え
制裁
州都
道中
頻度
##アク
##ius
##ald
アルファベット
バブル
得た
教官
素早
遺族
高温
魔界
##自体
Life
さす
ウルフ
ミックス
別府
去る
完璧
称する
門下
閉校
食材
高価
##ru
##パワー
##プレート
##一覧
Bo
エム
中西
増築
挙行
難しく
##デザイナー
##プソン
##ger
##FE
クローン
##ICE
NPB
クラウド
すず
たき
アトラ
国体
未発
正統
近所
##キサ
##ギター
##chn
オールナイトニッポン
ハンス
体型
司祭
退学
食用
##マリ
エージェント
ジュー
政界
襲っ
詳しい
迎撃
##ニウス
##メガ
呼びかけ
アドベンチャー
大辞典
di
れい
代官
利点
播磨
通知
##イッチ
##ゾナ
先駆け
はく
ダート
代役
国政
松江
液晶
アレクサンダー
満たす
再興
呪文
役目
武力
町役
進軍
風俗
##テンベルク
 "
トルク
事長
化け
天平
察署
店長
新書
##ロメ
ディア
##let
あす
不適
兵力
加茂
収納
和名
直轄
細長
頭脳
##ons
とら
アイン
古河
聖堂
聴い
講習
##ラシ
##ケース
##リンゲン
シェル
カウンター
ツッコミ
リハビリ
俳句
反論
宮古
日活
日露
次回
郡庁
酒造
##ッリ
##ェン
##ロイ
##ベーション
ジャニーズ
##ヴィッチ
ジョゼ
POP
あだ
厳格
政令
野口
##かれ
グラフ
マクド
ブリッジ
まき
コト
ツァ
ブース
メー
モナ
・『
依然
小柄
次女
祈り
見守
道徳
録画
##ano
##かしい
まとめて
ケンタッキー
えき
乃木
他方
指数
桃山
民事
海老
玉川
集約
##ゥル
##ントロ
アンドリュー
インディアナ
JST
Mk
ひかり
バウ
レズ
決まる
百合
色々
親善
鎮座
##スティング
##ats
またその
ブッシュ
位上
寿司
見た
遺構
##セラ
##ement
トロント
##ology
Em
MR
ギア
ハロー
大師
嫌っ
官位
腹部
##りゅう
ニュージャ
ドラゴ
アミノ
アタック
Tok
YOU
戯曲
散歩
触媒
高まり
##こく
大学校
つくば
NASA
侯爵
処置
広義
携わる
日高
橋梁
飼い
##モト
##ブレー
##ばり
スケール
ぐる
オース
マンチェスター
与党
本家
極東
田舎
砲兵
##いい
##ヒーロー
##MO
##売り
##フェイス
マルコ
ミニアルバム
定住
川内
母音
理工
通い
##くらい
##コブ
##コウ
##ざる
##あり
##プログラム
アクア
スキャン
Colle
オックスフォード
Up
とさ
シフト
ハーン
ユウ
大成
州内
手掛ける
発車
襲名
運ぶ
隠さ
##レックス
##ラック
##ードル
アーチ
Red
アジ
先述
厩舎
学専
就く
西口
##テラン
##SU
##gh
##じっ
PA
Tour
吾妻
岡村
幾度
戻す
神道
稽古
負い
##ヒット
##DVD
ニュータウン
デジモン
フランソワ
Hi
なろ
ゆる
リム
任せ
保っ
多額
島式
常磐
発する
県民
集まる
順調
##ミュー
##ロップ
##バリ
##降り
追い込ま
プライム
一貫し
SR
わが
グレン
北海
台地
支所
車輪
##ien
##ディレクター
アルト
ケネディ
うつ
しき
文藝
楕円
色彩
荒木
##サンス
##登場
##ットル
ルートヴィヒ
支払い
リース
付随
位相
太鼓
奉納
松岡
行える
鳥羽
##サラ
##きょく
##ライナー
テレビジョン
##REAM
##IME
##lymp
IDOL
無関係
ne
マナ
不死
北極
占拠
士課
小樽
河合
理科
考察
離れる
##INAL
ハーバード
エンターテインメント
内務
凍結
哺乳
推し
教諭
##ラウ
##キース
タイアップ
フォト
MAX
北軍
右腕
急性
放ち
栄え
運送
飛ん
アルゴリズム
プラスチック
Linux
am
たわけ
アンジェ
ゲリラ
愛好
温暖
覚悟
陸地
##シアター
アポロ
University
マケドニア
AFC
シーク
一次
強豪
紙幣
複線
陥る
青色
駅西
##フェース
##ラクル
ラッセル
ヶ所
公司
学制
復刻
未完
樹木
預け
リーチ
フロア
Aut
一斉
下半
元素
力発
回線
家具
本大
本館
深め
田園
答える
進路
##パクト
ゴールデ
カンザス
天文台
##ボクシング
##rumental
オズ
ヘー
公職
出世
包括
外し
混同
誘わ
逃げる
頂上
アレックス
フレーズ
アップデート
駆けつけ
ZERO
サヨ
塗り
射程
##ha
そのほか
アリゾナ
CC
WBA
アオ
サク
実習
対馬
意義
有数
歩い
褐色
##タック
##ideo
ニュージャージー
National
がき
イリノ
傑作
展覧
年始
愛人
指輪
村山
足り
##du
##タゴ
##ラリ
ワンマンライブ
TC
pres
大砲
進水
遭い
##ンション
##ネイロ
##飛行
##リオール
増殖
当てる
湾岸
輝い
辺境
途上
##ble
##ven
ライナー
STAR
William
Christ
コナン
主権
投じ
歩き
砂糖
##ler
##ビール
##回っ
##ッチン
##eth
シャトル
オブジェクト
ROM
えい
はめ
変数
特有
聖人
自家
##コメ
##たっ
##公開
カツ
ゴッド
サイクル
レポート
南軍
国憲
順序
Olymp
RAD
ドリ
代わる
反し
地盤
志向
物流
祭神
##ボタン
TD
あゆみ
エリー
エスカ
ダメ
公明
原始
揃っ
枚組
##ライド
un
ばん
ミン
各々
平等
続行
気づい
モニター
イリノイ
UC
みな
アソ
イタ
カープ
クエスト
代半
伝道
強烈
椅子
王族
論じ
趣旨
##リッド
##ブリック
##ノア
オーディオ
##ータイ
シュタ
マーガレット
co
デルタ
三菱
授け
法政
王家
聖職
##スパ
##ばら
##東京
完全子
コロラド
はじめて
##ouse
Rock
原爆
基部
婚姻
山村
念式
椎名
浮世
相馬
興奮
通報
高雄
ステレオ
生み出す
こなす
パレスチナ
 →
CB
SW
オットー
別冊
振付
縄文
遊撃
階層
##ポル
##チェン
##ody
マンハ
http
見舞わ
MY
ゴースト
リヴァ
井戸
孤独
家老
王室
##シマ
##ラール
##えい
フォックス
インク
レク
図鑑
旗艦
細かい
血管
語訳
語られ
##ワット
ハイブリッド
##ンテナンス
イブ
別々
致命
##モノ
##これ
##ほん
知り合っ
Micros
ちゅう
一本
亜科
出展
川沿い
弱く
杉山
西尾
踏切
軽い
逸話
##ンクス
ドラマー
カタルーニャ
○○
クマ
主将
器具
尼崎
特権
##uro
##ザル
##ストリート
問わず
OK
TAK
do
ゴミ
仮名
全作
告げる
子女
樹脂
群れ
閉館
##すれ
##セックス
##ations
##プロデューサー
そっくり
モジュール
同上
含める
定戦
未明
歓迎
気動車
飲ん
##ぐり
##務め
##atch
ファイト
BN
GIR
休憩
直ち
逐隊
##アリング
##バーズ
##EX
##劇場
休刊
執り
増田
閣僚
##ネーション
##フィルム
パシフィック
づくり
世論
全世界
宣告
弁当
所以
本木
機銃
消失
##ナート
##近く
##DD
ためか
##ジャネイロ
シェイク
ヒューストン
ヒュ
修業
商船
造られ
駅東
##プラン
##ソール
##ロンティア
##ビーチ
いずれか
JO
KBS
なと
ベテラン
上越
八郎
多彩
用品
発作
親戚
高かっ
##アンス
##銀行
プラザ
おおむね
デイヴィッド
SN
える
とか
テリー
マウント
全力
広東
救っ
教職
確信
積ん
艦船
車場
##スキー
##サイン
##タワー
エレクトロ
アウグスト
CA
ルーム
中性
使節
家政
弾圧
日比
脅迫
##lo
スターリン
ボーイ
大日本帝国
##ディエゴ
Val
レジェ
全滅
初等
名声
土砂
民法
白川
面会
飛騨
##リィ
##ゲイ
##勝利
ディオ
プラハ
##民主主義
チョコレート
りょう
サロン
セグ
フレイ
ラング
休養
克服
北村
導く
有人
着い
系譜
養父
##oto
ティム
朝鮮語
イエロー
RS
エルフ
ダンサー
トミー
ナル
ピッチ
人体
免れ
全土
大崎
太守
水田
##FF
ユニフォーム
アムステル
JCT
はち
保つ
半径
寄稿
御殿
本願
模索
水系
皮肉
##MP
ATM
ハードウェア
差し替え
アイスランド
手伝い
Dav
Pol
クォ
廃校
管区
贈られ
飾る
##ボルン
##na
##ジック
##BL
##ーマット
NEC
※ 
水面
没収
真宗
##ナギ
##ろく
##form
##EP
##ゆえ
##ors
サンディエゴ
オリエ
アクティブ
のりば
すぎる
スピンオフ
FOR
Mc
列大
灰色
クラッシュ
##aka
https
ウラン
ジオ
新編
生誕
軽く
##ラルド
##erry
クリスティ
アドレス
##オーネ
##コミュニ
ムーア
取り戻す
へん
クリーム
ラク
中毒
代謝
仮定
公務
喫煙
撤回
演算
道本
##ハル
##ハンター
チェロ
##orts
おこなっ
なに
出家
商会
拷問
甘い
##ブロック
##IK
##ラビア
##けんどう
ドラッグ
##ARA
Microsoft
CON
ケリー
ピュ
早川
赤軍
##メロ
##ノミ
##ポーツ
##ura
##ACE
Black
マツダ
ジミー
パール
主として
口癖
大空
大同
対面
尊重
山手
待つ
応答
書物
誰も
釈迦
高地
##ユース
Bas
Bro
GS
OB
SON
アンチ
カ月
スノー
一宮
吉岡
嘉永
小池
攻勢
春季
特記
破棄
能登
舞踊
造成
配達
飛ぶ
##らぎ
##QU
##ese
##ニアン
ミュージックビデオ
カテゴリー
すけ
侵害
信託
容器
援軍
武家
##ンドウ
ハイパー
初飛行
園芸
対局
小室
支局
社製
聴取
##レク
##ナンバー
伸びる
##ジャンプ
マンハッタン
Count
かた
はし
不信
動詞
大垣
新羅
暴動
##ぐれ
取り消
ソーシャル
Vo
亜種
任天
土器
大司
奉仕
市圏
有田
裕福
##VIE
付き合い
##ESS
ケーブルテレビ
パナソニック
Song
おし
ジル
セク
中高
打つ
浴場
駅構
##ニバル
##ゴルフ
アイアン
チャンピオンシップ
ヤクザ
かき
エチオ
サハ
ドミ
柔軟
港区
輝く
首脳
##じり
取り除
スペクトル
グルジア
メダリスト
しゅう
アレン
京浜
会う
佐渡
土屋
大沢
新製
汎用
無数
誇っ
金山
キャップ
##ガーデン
BA
FO
Nor
Time
おん
アデ
西郷
##カーズ
##oss
マーシャル
net
円形
役立
旋回
氷河
遠い
静か
##アンド
##ロボット
##キテク
##ocal
ホイール
フェラーリ
コカ
ソニック
元号
反省
遺言
##amb
シンデ
カタログ
NPO
大韓民国
ミシガン
レシピ
四つ
州道
弾丸
斜め
最悪
用車
砲弾
西南
馬車
ライフル
音楽院
合わせる
エアロ
フランクフルト
バナナ
シチリア
お笑い
ビートルズ
党首
動かす
左衛
樺太
歩く
駅発
##フランス
引き換え
コスプレ
News
Cent
ささ
イマ
家事
小西
徴収
特設
産出
睡眠
稲葉
ハンマー
Special
Pet
くらい
ひめ
手配
改変
管内
総数
##ロゴ
##ージン
ながっ
Best
きん
たどり
ベクトル
写本
外来
慎重
片方
称賛
融資
遥か
##サリー
朝鮮民主主義
Int
ニコライ
成し遂
アトラクション
アムステルダム
ハンドル
召集
常時
御所
慢性
現し
突起
解剖
##メーション
##チカ
引き受け
チャーリー
エチオピア
タケ
天野
巡礼
板橋
流す
異性
盗賊
フォート
リュー
前駅
参画
型式
巡回
救い
空き
語尾
##fl
##びき
##ATE
取り扱う
つば
スワ
バレン
余裕
媒体
形容
援護
育つ
防空
##わずか
##チー
##ican
フリーアナウンサー
##uber
ギャング
Fac
Je
PART
やむ
ギルド
ロジャー
争っ
営ん
大敗
天津
曲第
水源
要員
##ラグ
##any
サヨナラ
DA
Er
もみ
バド
ヒップ
ランス
処女
刻まれ
崇拝
強大
日系
製鉄
豪雨
釜山
キャッシュ
明るく
レスラー
あず
さわ
元帥
出動
出番
奨学
未知
楽部
西山
##ニカル
##ざん
##デジャネイロ
ヤンキース
* 
デトロ
ラフ
一行
休業
公示
勝つ
旧姓
満ち
特例
素直
##フー
##ナビ
##ハンド
##ほぼ
ガイドライン
マイアミ
Sing
− 
のき
アリー
仕方
係る
大国
好成
片側
皇室
薬学
速い
##レーヌ
ホームズ
ここから
リアルタイム
リオデジャネイロ
さよ
エビ
ソン
伊丹
低減
太夫
子爵
帯び
明記
##pm
##TB
##ナーレ
##ーツァ
カップル
BC
San
デート
刺史
大介
意気
末裔
邪魔
##ギリ
##ートー
フォーマット
ボーイズ
##eph
手がける
引っ越し
ナビゲ
エール
カミ
ブリティ
同誌
州知
着任
誘惑
##ウイルス
##VS
Reg
フランクリン
シアトル
##iversary
エレクトリック
Radio
ウズ
カエ
スナ
高槻
##ミッド
ローラ
ソフィア
ヨシ
上原
久米
囚人
悲しみ
搬送
真空
離陸
##かず
##ral
インフラ
持ち帰
##ike
まつわる
MB
Power
りん
使命
厚い
巫女
斜面
桑田
落合
補充
##ner
##PC
##RPG
##SH
##ソタ
##らしく
レギュラーシーズン
出会い
##ボクサー
タバコ
デトロイト
FNS
メンテナンス
勝率
参拝
収める
大勢
指標
永田
蹴り
##奈子
##フェリー
フォーミュラ
生き残っ
WWE
サッカークラブ
LINE
がけ
コパ
テナント
ラト
思わせる
成熟
減っ
点数
片山
番外
舞鶴
魔導
##ラフ
##ローブ
リンゴ
バッファ
REC
のめ
バビ
プエ
宝暦
尋ね
救わ
朝時代
留守
築か
##ガンダ
##ウンテン
スカパー
##URO
 –
千里
封鎖
局所
日清
無し
設ける
講和
##とり
##ille
ベネズ
すす
カニ
始発
娯楽
番付
豊川
迷宮
遭っ
##vol
##切れ
CEO
DAY
健一
国営
墓所
夜行
大洋
惚れ
意外
気に
起因
##ブレイ
##TO
##チェーン
プレーヤー
ギャラク
メガネ
##コースティック
DX
動い
史学
報復
新政
条項
痛め
薄く
過半
長老
駅南
##ドキ
イグ
ウサギ
ギャン
右衛
市交
断片
留まり
遮断
##しさ
##ヒロ
##ザース
##ティーナ
サッカーリーグ
クライマックス
子ども
FW
MD
たかし
とみ
アゼル
マキシ
一橋
一連
哲也
摂津
篠原
路上
迅速
途絶
野市
##デンブルク
組み立て
パラメ
ゼネラル
バーチャル
‐ 
コック
台数
学芸
密接
書道
沼津
潜在
直樹
米子
##リーク
取り壊
ジャングル
Club
スズキ
OH
中古
中枢
仕立
地内
屋内
生母
職場
薔薇
##オウ
##まわり
##ーマーケット
本番組
テネシー
CF
せき
タラ
パトリック
ミシェル
大火
家電
抽出
新春
男優
目立っ
賞賛
通じる
##タケ
##助け
キット
ラファ
ルーツ
不法
出航
国府
増やす
安置
年下
最短
異母
硫黄
都営
エルサ
ごとく
カンボ
ヘルメット
クイーンズ
やら
アセ
入国
初勝利
炭鉱
生地
総延
練馬
脱落
遅い
達人
##DER
##試合
ギャル
NEW
##ーグルス
マイクロソフト
閉じ込め
A型
NG
〜(
リボン
出羽
別荘
大木
字幕
対称
抜い
片岡
##いく
##フジ
##シーズ
##ッテン
##ゆり
##iver
##ECIAL
つくる
フォーラム
##ソフトウェア
わか
サザン
仮称
凱旋
怒っ
持株
挑ん
洗礼
準じ
無償
牛乳
罰金
西海
遅延
##レック
##ナール
##ebook
Ang
アルバニア
受け継い
Win
ac
シリン
別人
悩まさ
東口
産駒
通話
開花
高句
##セデス
##ヶ月
ディフェン
サンプル
フィルハー
GN
ひど
グスタ
サントリー
サポーター
割れ
合宿
多岐
失脚
本放
痕跡
硬式
##エロ
##イルズ
バルカン
ヨハネ
ボケ
合弁
寛文
派手
##ナイン
##ペスト
##張っ
##ero
オーガ
Cont
近づく
エストニア
ファンクラブ
ベネズエラ
WD
カワ
クワ
ナー
ブロン
ルーズ
全英
台東
奄美
知れ
青少
##トレー
##返り
プロフェ
ライアン
##ets
##AMA
##ミニウム
CLUB
ポーズ
天満
小牧
崎市
楽しみ
総統
超能
転属
受け入れる
アイオ
##フレーズ
ミシシ
ブロードウェイ
カザフ
エステ
デビル
ビタミン
共作
分断
分泌
分かり
州議
緑地
譲っ
金髪
阿弥
##学院
キャサ
ジュリア
少なかっ
ウォルター
Inter
ベストアルバム
##ミュエル
文部省
RK
くろ
まく
アコースティック
マッカ
リバー
レイア
主な
文久
新入
最前
##リントン
##っか
##じゅ
##ファンタ
切り離
ネズミ
体質
史実
平洋
掲げる
直結
神楽
神秘
築き
花園
若き
##トリア
##ネスコ
##ベス
##椅子
##レーティング
##ファレンス
ローリング
フレデリック
とえば
ルネサンス
コンスタンティ
シンデレラ
MAN
ペドロ
マック
口駅
回裏
曹操
留置
##ブー
##ムル
##づき
##マーケット
##ney
RPG
ゴードン
以っ
断絶
法制
給食
進入
長け
麻衣
##か月
##アクション
##バナ
フランシスコ
シャープ
ミニゲーム
ジャーナル
都道府
Tokyo
カンボジア
Xbox
偽装
切る
国人
幅員
数回
行なう
見習
鶴岡
##パネル
##TD
##ital
Che
オリン
ビジュアル
ミヤ
側室
合法
変装
実父
広州
待合
提起
財閥
##レナ
##eral
コンゴ
アスレ
ムービー
ミネソタ
Associ
ブリティッシュ
Mod
動揺
左腕
##ホークス
##ヴィエ
インテル
久保田
presents
Day
my
たし
ぶん
アズ
ウマ
ルノー
一新
任官
反転
収蔵
各部
回表
奥州
握っ
次世代
汽船
浸水
為替
荒廃
醤油
魚類
##ンスト
##サウンド
##カリスト
アルバート
##ety
国民党
ジェイムズ
ケンブリッジ
ホルモン
大作戦
くら
サミュエル
スネ
争う
出自
剥奪
名探
向こう
平地
特色
系図
領有
##リーニ
##ップス
キエフ
チーズ
モーツァ
年表
背面
遠山
非営
食物
##モロ
##ホイール
##ビート
##カミ
##どころ
オリジナルアルバム
Geor
con
石灰
素数
骨格
##っき
##リーブ
ほかに
振り回
スロバキア
スーパーマーケット
アンソニー
Min
Sum
UH
きら
グラム
優しく
公正
名物
売店
安心
平原
愛国
消息
火炎
無罪
直撃
納入
臨ん
解禁
賛同
鉱業
##ene
##フレーム
メルセデス
楽しめる
なぜか
モロッコ
WEB
ハイス
内包
刑法
北川
役人
志望
櫻井
激突
発令
立てる
逐艦
電灯
顔面
##カワ
ローレンス
MOVIE
 =
Sal
じゅん
ヘア
メド
奈々
本殿
直流
##スキ
##ケーン
##ガタ
ジェーン
マクロス
カーン
キッズ
ピース
佐倉
台本
地裁
地表
廃業
惹か
暗い
清掃
火薬
知人
立案
紳士
置換
連発
##ling
SMAP
アンダーソン
カプセル
FS
Tw
fr
パズル
リヒ
リック
再結
嫡男
対岸
意欲
抱える
新党
村長
郵政
フランチャ
##ファクトリー
##ision
フォース
クラウン
PP
げん
メリ
分家
帰宅
有権
歌人
源流
硬貨
窒素
総司
諸説
馬鹿
##オラ
##ME
##じょ
##its
ウェル
CBS
あふ
キミ
ヘブライ
ホン
丹後
同梱
決闘
無敵
監禁
等級
誓い
諜報
通訳
##リッヒ
##クラフト
Mark
パワーアップ
##マイカ
サビ
充電
単式
居城
洋画
生ん
竹田
衣服
警報
##トーク
##マート
##ッペン
##IST
##ソス
##世紀
##広島
たりし
マネー
レジスタ
イヌ
ブロー
乗務
招か
探知
無名
瑞穂
番艦
##ガンダム
##換える
いっぱい
##ジャック
##ルーシ
西日本旅客
##チューム
GA
Tra
不幸
兄妹
平井
無駄
##ントス
##マーシャル
##ンテーター
つながる
ミシシッピ
コーン
サテ
三国
夢見
大破
好調
如来
抗体
東海道
特命
直面
要し
造営
電信
高圧
##NE
##ージョ
アンディ
ng
ぜん
テイ
初音
多発
寝台
幕張
後続
点在
頼り
##デンス
##ダスト
##スティン
ワンダー
ANN
Fe
Jr
SOD
VHS
アング
ギュ
ヨーゼ
中堅
九郎
佐竹
勝目
本文
民謡
若年
通用
逝去
遊園
鋳造
##つう
##討ち
##ISS
##OSS
##ILL
キャサリン
; 
King
一軍
勾配
川西
晴れ
望月
買う
野望
##ラーゼ
呼び出し
ソロモン
##フレッド
Amaz
Heart
いし
おしゃ
カセット
キネマ
ワープ
下さ
下水
中略
促す
年俸
採集
文法
浄化
演歌
運ば
遡る
集結
##ノート
##ze
##合わ
##ッツァ
ビルボード
アドルフ
##ITY
取り組む
甲子園
アゼルバイ
Des
ヘッセン
使徒
収束
小麦
幕内
得られ
戦法
敢行
水分
画策
資材
##マール
##JP
##TH
##延び
##和田
##テルブルク
##ッケル
作り上げ
Award
インスタ
ニール
主党
分の
半数
単身
原産
同窓
堤防
松島
楽しん
狙わ
病死
胞子
頼み
##なら
##ye
##ピース
ステン
プラズマ
##ella
##オリジナル
ヴォーカル
ゾイド
ダッシュ
ノア
マヌ
愛用
於い
校内
語族
黒色
##アーズ
##ヘビー
アルミニウム
##フォーマー
##コンサート
引き継ぎ
テロップ
all
Java
MAR
イサ
オールド
ジ・
公務員
剣術
店主
書紀
湿地
長尾
##アム
##タリー
##JI
##カゲ
そういう
過ぎる
アサヒ
でる
増や
後漢
悟空
承諾
穀物
親しく
##チド
受け取る
作り出し
##OLL
##ific
ノルマン
##キテクチャ
イニング
サード
ソード
令部
問う
外さ
大胆
巡目
帰郷
日刊
未遂
河北
連ね
銅メダル
##ij
##行わ
立ち向
もらえ
アゼルバイジャン
IR
go
デッド
信念
先住民
却下
抽象
組成
茶屋
課税
適当
領事
##ブラン
##タニア
アルテ
アルカ
フェイス
チャージ
科学省
ウォーカー
カリブ
##ボーグ
モントリオール
City
ひた
主翼
堀江
翌週
自慢
魔神
##ior
##サール
##バンス
##DP
##丁目
アイランド
シュトゥ
NTV
再構
切手
即座
失格
意匠
精力
見かけ
谷川
転身
通局
隊第
飲む
##スコン
##セブン
製作所
はいけ
ボスニア
org
トキ
ネパール
原発
変態
定番
松戸
穏やか
競艇
飼っ
##ミク
##ウリ
##ティエ
##ッカーズ
サラリー
引き継ぐ
試みる
パナマ
クリストファー
Sun
なれる
オア
信州
初心
原駅
山東
巡り
祇園
秋季
精密
腫瘍
貯金
##ワイド
##ノル
##ILE
キャロル
バスク
折り返し
だらけ
Billboard
ヨーゼフ
Rem
そろ
ペトロ
冷凍
強め
本書
渋滞
準拠
物件
蔵書
驚く
##aut
マーケット
##OME
##OWN
American
セールス
マシ
匹敵
団員
岩田
新記
早々
有志
未成
白井
盗み
耐性
託し
速く
隼人
電報
##ラノ
##すい
##ゲス
##ストリ
クロム
チェコス
サウジア
エルサレム
GE
SG
ゲオ
タム
化物
天明
琵琶
田口
真似
転入
##どん
ものに
アルベルト
ディビ
グラント
デイリー
初回生
##ブレム
ヘッドコーチ
リバウンド
WAVE
ウイング
北口
合金
宰相
寄進
徳間
等しい
給与
過酷
領内
##ストル
##ディネ
インストール
マニラ
Bi
ER
くま
しゅ
やき
ウン
名簿
山川
左派
巧み
恒例
指向
旭日
有害
添え
真剣
破る
貼り
遺物
##いわ
##エナ
##テット
##ぶし
自由民主党
オルガン
##ドンナ
上回っ
Anniversary
マニュアル
web
ザン
内村
名付
場線
大夫
導き
旋律
消す
移す
締役
開会
飯塚
##ペイ
##ゃく
##ャンマー
##ret
メロディー
Soft
pr
タコ
不自
元和
劣る
参事
大映
応え
投げる
津山
流派
端子
装填
遊ぶ
関ヶ
館長
騒ぎ
##over
##ウォー
スリランカ
Fri
オイ
ナノ
マッカー
公使
公論
名残
塩化
奇襲
張っ
日吉
熱血
鋭い
高層
##グレード
##rid
##シミ
##ボリ
##田川
クリエイティブ
リタイア
Tri
YO
だち
オセ
キース
代打
前部
勅令
周回
掃除
相応
納得
転移
開園
##マリア
##長調
##送り
##ッチャ
##ship
モーツァルト
サウジアラビア
もど
ゲン
マッド
ユン
今夜
可動
商売
彼自身
操業
整え
栗原
祀る
祈願
良かっ
議事
軍部
降水
##カール
インターハイ
アクセント
##ウィーク
サイコ
まとめる
あらわ
EL
アラスカ
ビュ
再戦
出陣
北大
城内
本能
気味
無意
特捜
社殿
遊ん
##およ
スタメン
スカート
バンコク
目立つ
チェコスロ
NATO
ゆっくり
会派
冷房
好物
平塚
志賀
慕容
摂政
救命
数人
物産
視野
車椅子
迷い
もらえる
セントル
##クタール
Port
イザ
ゴシック
スミ
刺さ
宅地
日韓
景気
望み
機密
炭酸
織り
誘致
配分
養護
##しぎ
##マップ
##ボルト
##立つ
##ファイア
メジャーリーグ
von
ケルン
ナン
パイオ
人妻
仕上げ
出所
勧誘
村人
浅井
発想
窮地
跳ね
##ダラ
##ツー
ファント
リーガ
ストップ
##ORY
##ello
Blue
生み出さ
ALL
Exp
JIS
アワード
バード
ヨル
係数
元来
児玉
受注
樋口
模倣
発酵
腕前
調べる
赤穂
##スル
##コット
##ナタ
##ソナル
##witch
IMD
ハドソン
DIS
Jo
der
安土
接収
渡さ
終わら
調印
賃貸
長寿
驚い
##ベラ
##ジュー
##hone
切り替
##ブリエル
##very
本形式
アヤ
メリット
共用
刺し
南口
吉村
暴露
松永
洗脳
良さ
西大
アルビ
デイヴィス
ワシントンD
カスタム
落ち着い
成し遂げ
ドレ
ナム
レイク
ロビー
南下
大連
御用
徴兵
挑発
替わり
東名
殴り
決済
炎上
茶色
谷口
転居
運ん
関税
養老
コンピレーション
フォワード
##ンガル
Thom
Ul
せず
ぶつ
まえ
ハチ
パド
ロータ
ロッキ
原曲
図られ
基督
天地
打倒
改宗
新造
本戦
法違
無期
獣医
生殖
萩原
調和
進言
黒川
##いか
##RNA
##開業
##ステン
ヴィン
##ASS
##ウォール
ミズーリ
けど
ミャンマー
勤める
原文
性愛
杉並
##TE
##ダード
シンセ
バルブ
テクニック
Ap
デニス
ヵ月
事象
便利
喜ん
布告
急死
招く
漏れ
疎開
総務省
草津
除籍
##ンバーグ
##ASE
飛び出し
パニック
ヘクタール
ロベルト
中身
亡き
作られる
獲物
科医
連行
陥り
##デール
##ダール
##ush
ながり
##パーソナリティ
ヴァージョン
##ATA
吹き替え
移り住
##フィールダー
なべ
エナ
ミツ
何者
半導
大多
慰安
渡す
競う
繋がり
起業
長門
##タカ
##ico
サーバー
Alb
PRO
めぐっ
AG
bl
いつか
くり
天狗
常設
発案
那珂
##ホッケー
入り口
オンエア
##uck
フェルディ
セバス
変貌
有用
準急
##っちゃ
マーチ
カルシウム
ビルマ
町村制
自衛隊
スティーヴン
及ぼす
なさい
アリア
ナナ
ルドルフ
ログ
必死
知恵
積載
花嫁
見込み
訴える
遠ざ
隊司
隔週
雇わ
##ィー
##だけ
##iew
コンビニ
ドロップ
新校舎
IMDb
Fi
Hy
NBC
Video
のん
キッド
キノコ
バタ
バリー
ユリ
下北
助成
収監
平坦
立方
静止
##ora
ジョナ
##ッグス
コスチューム
スーパーマ
そもそ
ウズベ
Lib
カモ
カバ
ナイン
ピストン
メイク
公家
公言
国宝
失業
帯広
本山
石碑
碑文
経っ
線上
苦しみ
里見
アルマ
クルーズ
FU
PAR
WOW
のぼ
サング
北区
古巣
日報
未収
王様
着た
立教
除け
陰陽
##ゲージ
それほど
オレゴン
MG
中年
乗務員
交番
北見
名作
固体
壊れ
宮川
山駅
提督
達也
##ッロ
##タリ
##ゼロ
##UP
おらず
Techn
PDF
##レーティングシステム
パイオニア
そもそも
, 
DREAM
Wi
こころ
はす
住職
優勢
奮闘
放火
明和
義理
##スラー
##enc
##シャワ
du
mus
「(
チョン
不倫
優等
冷戦
対潜
庄内
戦果
承継
業後
発光
目録
祖国
駅北
##リブ
##々しい
いくつ
##ival
サイモン
マイナーチェンジ
ちょうど
##ムービー
Bu
ワニ
促し
分立
反抗
寺駅
属す
府大阪
自伝
転倒
近縁
門司
陣地
##クリーム
##ンタイン
不可欠
NAID
ぐらい
タク
フック
マニア
今治
備前
八戸
内科
打診
支障
文科
派閥
石巻
称え
説教
##サキ
##オロ
##ラシア
##vent
ならず
持ち込ん
##OLD
ライトノベル
間違っ
RECOR
##ファンタジー
フランチャイズ
AF
KAD
fl
さぎ
ドット
主席
事変
屋台
成す
末端
版画
素子
阿蘇
##ブレード
##バスター
##ベー
##ストリーム
使い手
##rop
労働省
##ODY
キャッチフレーズ
ノースカロライナ
ロマンス
Ear
EMI
FEST
ml
オナ
ルナ
上層
今年
代用
供養
古賀
戦目
留め
終始
編制
莫大
蝦夷
豊後
配合
##マウント
##ッサン
##レンツェ
ショーン
ワールドシリーズ
スパルタ
アメリカンフットボール
近づい
レインボー
BMW
Act
のぶ
巡査
旧称
有明
湖南
産経
秋元
補完
退場
開山
##ローン
##デジ
##yr
##ガラ
##互い
##ティウス
##ola
ロードレース
GK
OL
エンジェル
公転
北欧
同曲
普遍
欠け
紅葉
細い
詩集
##ホルム
##ORE
クレア
毎日新聞
ピラミッド
Med
スカー
掘削
敦賀
木星
橋駅
着て
稼動
行隊
説い
##ロラ
マルタ
##キャニオン
フルート
第一次
大聖堂
ベラルーシ
セリエA
Robert
Kn
はみ
ピック
ユキ
出血
号店
器官
困っ
思え
手当
放浪
激化
胸部
返す
進撃
##アタック
##ベリ
##ワールドカップ
ミッドフィールダー
アベニュー
生き残り
じん
ユネスコ
何故
天台
熱海
特筆
美味
##スピア
フォーム
##ちらん
(#
バース
モール
奥田
学教
育てる
負荷
##コンテスト
毎週月
##endo
スライド
サンクト
執政官
ディビシオン
-)
Corp
GU
やさ
わかる
カネ
カーター
ニン
パト
ヒンド
下田
二子
共闘
及ば
各所
売っ
経た
赴い
銀メダル
##la
##ホップ
##始め
##ANCE
エルンスト
タービン
##ッキリ
##iko
天文学者
##アカデミー
ぐん
ジオン
ルカ
亀山
同点
母艦
貸切
##ball
##アーム
##ケス
##菓子
ジェン
カービィ
クリミア
##OKAWA
(@
MM
デリ
マディ
入浴
処罰
化炭
坂井
平家
摩擦
架かる
棄却
江東
社文
移送
補正
軌間
退い
##ザック
##ANT
自由党
アクセ
##トゥス
Good
マクドナルド
PI
お前
なな
ソラ
ハノー
パク
パンタ
フアン
党内
幼虫
忍び
改める
横手
死神
稼ぎ
部数
##電車
マルティ
パーソナル
##つつも
##ルツブルク
Kar
ふり
イース
ナッシュ
バファ
ピッツ
ベビー
リンパ
何人
内定
分ける
手順
業高
育館
麻酔
##アリ
##クショ
##はり
##戻し
日本海
##erm
Str
Group
テクノロジー
Amazon
にん
キリン
ピンチ
同番
天候
専任
扮し
総括
製紙
諸侯
速力
##スワ
それゆえ
##ローラー
サーカス
トリノ
カジノ
Facebook
グスタフ
Let
NS
えん
なじみ
シール
乱入
大小
替わっ
母国
経費
署長
超過
##ヘア
##がわ
##以外
##ータン
たらしく
##ada
クライアント
平方メートル
##ittle
サラリーマン
KADOKAWA
tr
カレ
レッスン
ヶ丘
店内
微妙
支出
月後
桑名
生駒
発砲
羽根
##フマン
##ボディ
##プリン
##ヴル
##払い
##ルトゥ
##シアン
キャンセル
##ipp
クリーブランド
Girls
うけ
レバー
一年
両腕
代末
代議
南端
覆う
##ex
##プー
##za
ブラウザ
Champ
繰り返さ
盛り込ま
エキス
チェコスロバキア
Bre
Happ
〜 
ミリオン
不具
両端
信徒
含み
在職
堀内
尻尾
尾道
幡宮
採っ
着く
調停
駐留
##ッティング
ジェノ
いわき
LA
mg
うら
おかし
カク
セメント
ネルソン
マヤ
ラバ
ヶ谷
体長
城壁
対外
御前
流星
混雑
添加
連装
##わず
##PO
##プラー
##こそ
##VID
##FT
シャッター
SPECIAL
##IVAL
##irect
オールスターゲーム
FINAL
Ke
ひき
ひまわり
叫び
始祖
棄権
水谷
海運
無形
物事
直列
赤外
青梅
##iro
##学生
##受ける
##シャイン
経済学
スピーカー
Instrumental
Association
地主
希少
広さ
戸籍
枠組
見つか
間も
間後
##ノイド
##ガキ
##九州
##フォルト
##フェア
##ジェスト
##ージェンシー
GH
Not
SK
なめ
よみ
マフ
マザー
代中
勝敗
和夫
城山
大魔
学派
宇佐
微分
担い
擁する
池上
法定
濃い
病理
短歌
絶賛
軍司
返済
##to
##ダック
##インタ
ハイビジョン
ヴェスト
衆議院
おこなわ
ロスト
協調
島原
新体
秀樹
艦名
退却
##ゲー
フィクション
フェロー
##アーノ
トリプル
たまたま
カメラマン
Enter
ドキュメント
Paul
WH
マール
叢書
図り
塁手
多重
大本
少々
微生
敬意
明示
曹洞
激減
転職
迂回
##メカ
##以降
##フォール
シュヴァ
##っとり
コロニー
プライド
ワルシャワ
##コントロール
カト
レフ
人造
低地
初恋
在地
容赦
崩し
水着
波動
淡水
県警
眠り
衰え
調布
退け
頼朝
##ッラー
##じろ
クロウ
##ボーカル
Season
Cal
ひが
公会
岩石
最盛
渡米
煙突
結社
自爆
訂正
迷惑
進級
集計
##くろ
##みち
チェン
##irst
オペレーティングシステム
ペンネーム
ポールポジション
武道館
Os
Sl
たず
たど
わかり
ダラス
券売
力強
商用
川端
撤廃
東郷
筐体
者達
貯蔵
選帝
鍛え
阿久
香取
##aj
##ガルト
ファラ
##ラスター
##ンタン
フォント
##ICK
追い詰め
アブドゥ
一体化
CX
あけ
きり
みらい
坂口
川流
極度
葛飾
##ドーム
アルフレッド
##ady
ユーザ
RADIO
セントルイス
iOS
のぞ
もろ
パーカー
モモ
レーン
下級
作物
同種
増幅
家出
届く
慣れ
水深
終焉
##bur
##エティー
オーダー
ヘルマン
##ensis
にし
ノック
処方
叙さ
四川
土井
家協
府京
新報
桑原
溶け
漁港
狭く
紀半
菩提
許容
##ホーク
##ノイ
##ぱら
##uss
大きかっ
ステータス
スリーサイズ
シェイクスピア
Jos
しら
にき
アガ
カサ
ヌー
フロンティア
久美子
例年
堀川
子として
悩ん
所所
楽しい
母校
生時
白河
線内
重臣
##シズム
##ホマ
##ビーム
##ボロ
##うら
##カート
##同じ
キャピ
タイガー
##リオス
ウォン
スクウェア
##バックマシン
トランペット
にくく
ドラムス
ウェイバックマシン
ストローク
不具合
Li
Sn
Sil
VOL
まど
イナ
ミルク
仕上
増備
新居
聖地
長身
開閉
馴染
##ーダ
##メイド
##レディ
##一丁目
##ツキー
マイナス
##ジーミル
パラダイス
エイリアン
NM
Po
So
そし
カヴァー
一撃
三塁
入試
夏目
大船
子役
投獄
松村
浮遊
祝福
神崎
錬金
音色
##じい
##リオット
レバノン
ph
イレ
エンタテインメント
オバマ
ベートー
ロブ
伯父
公団
合作
沢田
混在
点検
築城
自走
##かみ
##アリーナ
##サック
##ars
ライプ
勝ち越し
Arm
USB
クリエイト
| 
ノーマル
全権
土浦
攻防
##ネード
##ぐん
##ated
##リアー
プロセッサ
アレル
NEXT
スロベニア
デラックス
エグゼ
Of
やはり
アストロ
ナオ
ハット
ロイド
不調
古来
宇部
寺田
小銃
放課
根岸
武者
貧しい
返上
重ねる
閉塞
##tain
##フード
##べり
##ナーゼ
##icial
ヴォルフ
ベーシスト
オークランド
主に
助教授
効力
厚木
太刀
宿主
山線
後円
翌月
風貌
駅周
##ボート
##カテ
##キュラ
##グラフィ
たまに
スケッチ
長谷川
聞こえ
クック
ヴュル
一角
北山
同郡
回帰
執事
小坂
戴冠
断面
時頃
特務
##ウイ
##ズラ
##ディーズ
コンペ
ジュン
ハイウェイ
##ソナリティー
スティーブン
気付い
千代田
ルーズベルト
DT
いって
じゅう
イソ
ガブリエル
加古
単なる
司る
圏内
多々
嫌悪
律令
狭義
術館
##be
##なか
##バッグ
##エース
##ates
コンプレックス
さらさ
ウォーズ
##ograp
ディフェンダー
FE
あう
どころ
五月
伊集
体当
優子
反逆
売春
大道
年月
技場
演芸
焼い
町字
発刊
若狭
車輌
隕石
黒髪
##マツ
##PA
##がき
##みん
##enter
呼び名
##ファイナル
ヨハネス
コンサルタント
Pi
Soci
なう
よね
アイド
イニ
エニックス
タキ
ポロ
公文
反動
呈し
屈指
届い
手数
注ぐ
結末
襲う
鉄路
##原子
##END
##ense
ISSN
ロータリー
取ら
否か
四日
常盤
桃太郎
献上
見通し
請願
##ベガス
##URE
##イオス
モノレール
フィギュア
Sam
きゅう
マシュー
国々
尾根
平定
店頭
座っ
抹殺
柔らか
構える
毒性
瑞宝
至り
負債
逆襲
連想
開口
##ブリア
##BE
##残し
##ona
フレッシュ
Your
フライト
フラワー
エンターテイメント
ミュージアム
サンクトペ
Mer
きみ
イブン
ギブ
マフィア
主電
公卿
吊り
同性
声楽
大平
居合
常任
昨年
江南
私鉄
谷村
軽井
##ビジネス
##カンパニー
##ヴン
##文館
アルジェリア
インデ
##フェス
バンクーバー
ふみ
スクラ
ロドリ
下手
宇野
山麓
府道
急増
開港
##ぐら
##指揮
##抜く
しかしこの
ニコラス
大蔵省
アッシ
ガイア
スピー
一帯
児島
出せ
断層
東亜
栄誉
祭典
見直
銘柄
##ニシ
##ネスト
##ポーズ
##ペス
##民族
STER
ハンブルク
テロリスト
スロット
ル・マン
新潮社
" 
Cap
FNN
エッチ
グルー
コリ
ナチ
一見
不当
入党
察知
提言
死傷
異端
砲台
頃より
##寄っ
##ative
##illa
ジェイソン
クランク
##クショナリー
かる
とこ
ダニー
バーナ
ブダ
儀礼
判所
島村
彼氏
編み
連立
酷似
隠す
##メド
##ムラ
##プロモーション
ユーラシア
##トロール
コードネーム
繰り広げる
シリンダー
ジョナサン
HO
Mor
ad
イントロ
シルク
ワンダ
利便
品番
噴射
悪役
止まっ
留場
規約
計量
議決
遭難
##uel
##メモリ
##ボイ
##ドス
##CF
##たび
##まと
##リーミング
アンモ
グループリーグ
シューティング
メカニズム
セミナー
 【
まね
主と
協賛
原町
大家
崩御
立命
絡み
臨海
表向き
近親
逃れる
適正
頼ん
##くじ
##ない
##ジロ
##ハマ
##ガイド
##ージャン
ストア
##ッツォ
##ird
にちな
Eテレ
MAG
rpm
ノイズ
一瞬
付さ
可変
坂上
外相
波長
離党
##メア
##コト
##キラ
プロペラ
サンパ
クローズ
チェス
トゥー
サブタイトル
佐世保
PHP
オタク
サンクトペテルブルク
Pal
Sol
ぐみ
オクラ
プチ
ホウ
レモン
不完
台場
各局
吐き
域内
外出
官職
岡部
所前
手助け
欠陥
猶予
発進
苦悩
証人
詰める
遠距
##ris
##ster
##マスク
##work
##電子
##去っ
##ランク
##ンチョ
ジェームス
普通科
##フレンド
メルボルン
フライング
##ield
##ference
BIG
Dis
つくり
カラス
シリ
レプ
包まれ
反則
山間
往来
怪談
換算
撮り
浅い
深さ
深川
理性
素顔
飛躍
ジャマイカ
##パーツ
コーポレーション
ベストセラー
##ツィオ
エンタープライズ
プロトタイプ
バドミントン
フィルハーモニー
Sw
ばい
ふさわ
ケント
サバ
パウロ
反響
商学
帝都
火器
異世界
神父
移築
荘園
薬局
見立
預金
##mb
##ゲスト
##建設
ジャッキー
フェン
クレーン
カラーリング
にわたる
ハンドボール
サスペンス
いす
ひさ
テラ
マドンナ
北九州
女学校
平山
替える
架け
討論
##グア
##さり
##シアム
フィレンツェ
##ツィヒ
はいえ
##ファイターズ
ポニーキャニオン
バレンシア
初回生産
かと
ブリー
体色
大生
恨み
星座
未亡
疲労
藤村
観念
選曲
須賀
願っ
##くう
##パード
##コタ
##YP
##ジアナ
バラード
ウラジーミル
UFO
Hen
NDL
イワ
サボ
デハ
デビッド
亀田
充分
共感
墳丘
大黒
川田
手足
教鞭
新宮
淀川
灯台
点差
神谷
納め
鍛冶
養女
高砂
##文学
ヴァー
クロード
小説版
##ima
##ACT
##および
バファローズ
Data
O型
シノ
乗合
伴奏
兵役
分配
小原
恵比
扶桑
松前
熱い
独身
見積
辺り
速報
闘い
陽性
風間
##スラム
##ゴラ
##ンドルフ
##AME
##ブラック
クリントン
巻き起こ
ウルグアイ
Af
イアン
ジーン
付着
劣化
原点
去り
吉良
水色
法華
秘め
芥川
補欠
見れ
親方
随時
鬼太郎
##ナリズム
##投げ
##残さ
##era
##リングス
プラチナ
##OWER
フェルナンド
Serv
「『
だす
めざ
ゼル
タカラ
ボイラー
大樹
幕下
男児
紀行
重なっ
長浜
##line
##ience
##そり
##ひこ
##レーツ
##ena
##ウィック
##AMP
##ウォーター
ナイジェリア
若い頃
明るい
Ep
HT
Sky
up
お金
アッシュ
クイン
マッサ
モテ
モデ
下ろ
五島
以南
大抵
届か
弾頭
河南
隔離
面接
##テリア
##ばれる
##LA
##離れ
##スタッフ
##アーティスト
北海道道
サイエンス
##oph
##フルエン
##デスリーガ
ハリケーン
Bel
NT
Version
Yah
テー
テュー
出兵
園内
履歴
水島
版第
聴く
輝き
隆盛
驚異
##グリーン
##ッホ
##ロニ
##チコ
##ゼー
##eng
コンポ
##ウェン
シュル
そこへ
キャンベル
##ハーゲン
##berg
##チスロ
おもちゃ
##weet
ドミニカ
レイアウト
ファントム
ヴュルテンベルク
NDLJP
ナチュ
ボビー
ミラクル
制式
大泉
大門
天空
子育
寺社
居酒
延暦
握り
施策
繋がる
豪族
越中
送電
青空
##ランブル
思い出し
##グラード
##グラウンド
タイムス
##プレイヤー
イケメン
iPhone
RECORDS
お互い
たみ
ケープ
コナミ
サリ
ノウ
別途
強硬
火事
苗字
若林
関口
青島
騒音
##ビウス
多く見
いろいろ
ヒップホップ
ステンレス
クア
スチ
バッド
中区
低温
劇的
大物
教義
溶岩
無差
片手
知性
見受け
##落ち
##ンドロ
ウォル
##ブラザーズ
コメンテーター
OFF
にわたっ
プロトコル
ケーキ
スーパーマリオ
WOWOW
B面
JF
ft
あわ
オロ
パルス
プラント
不審
乱れ
宝島
岩倉
延喜
擁し
新橋
新城
杉本
栄光
民兵
麻痺
##メタ
##レフ
##ks
##キウス
ウィクショナリー
シャドウ
アフター
こそが
イヤ
タウ
入所
同市
噴出
多田
怖い
浪人
潜伏
肝臓
臨む
自機
自害
道府
防護
##わめて
##der
##orld
ファイア
##ナンデス
ミハイル
David
アイオワ
B型
こも
ぬい
イズ
カリス
ジブ
今大
南道
壁画
小金
廃藩
揚げ
楽園
権現
沼田
津島
深海
画整
開場
風土
##デッキ
##ラジ
##OO
##イアント
##プロダクション
グラフィ
スマイル
##ブレッド
コスモ
レオポ
バッファロー
おや
コスタ
モンタ
上水
下総
奇数
宮田
岩国
強要
接種
新大
気圧
江川
竜王
美し
追及
通販
部落
館内
##エリ
アンコール
行き来
バックアップ
ブルックリン
レジェンド
ゲオルク
Mil
Mem
Miss
NWA
Sound
Trans
アザ
ウルス
催さ
和子
土産
大口
宗家
宮市
廃駅
待遇
杉田
演目
竹中
給付
羽生
裕子
載っ
非対
##コシ
##チウム
##ham
##ペディア
##ファーム
Team
振り返っ
Alex
Ber
Game
Sim
gr
ギガ
テイク
ホークス
三浦
古今
図柄
奔走
市消
愛宕
撃つ
本庄
武藤
築地
納言
終える
肥後
解読
金星
##ネンタル
##バイク
##ベア
##留め
取り巻
フィニッシュ
乗り込ん
フレンド
ルーカス
##トゥー
ベンツ
のび太
見習い
Bab
JNN
セネ
デパート
レンガ
人柄
出かけ
園球
太政
如く
後見
恥ず
患っ
藤岡
##lin
##ister
スーダン
メインキャラクター
つながっ
ユナイテッドFC
UTC
new
さし
よび
カエル
ケイト
ケニア
サザ
全盛
公平
厚く
味噌
噛み
土岐
憑依
新装
新川
父母
産卵
短距
細かく
視力
雷撃
霧島
##っかい
##嫌い
Ref
パンツ
インテリア
シークレット
ナビゲーター
sc
とめ
なた
イリ
イヴ
パチスロ
太宰
宮中
寄せる
寸法
弱体
我慢
氏名
犬種
童話
##ミオ
##ring
##クティブ
##っく
##じんじゃ
##ギニア
ユニーク
打ち出し
##サイザー
カスティー
LD
Out
ハッチ
バロック
ポピュ
修学
岸田
後悔
歌声
水晶
洗濯
義経
##VR
##知ら
##ューズ
プロパ
コンタ
##フィクション
フォール
フェス
##osa
繰り出す
もっぱら
アキラ
リモコン
アソシエ
サテライト
ES
James
Mot
カイロ
ゲオル
ジーク
ナンバ
マダ
ムラ
中井
交配
内地
写像
同法
天草
川原
志し
手間
横田
欠席
糖尿
西欧
要領
解く
警護
退治
##リリース
##カフェ
ファーム
##ティーノ
環境省
トラウマ
アクセル
デュエット
本拠地
ストライキ
##コミュニケーション
プエルト
トール
トマト
ヒート
上皇
信玄
催眠
冗談
含有
大当
学中
家業
戦記
摩郡
洋子
町線
祭祀
緒方
藩領
裏面
超音
##カツ
##ギル
##語り
ディスコ
果たし
アドバイザー
マクロ
あおい
EV
RNA
かれ
しず
ぶら
カマ
ワークス
内山
始末
憲兵
溶接
##li
##かね
##分ける
##ダービー
フェザー
チャップ
こういっ
サイレント
ノーフォーク
スレイ
ダブリン
リポート
停戦
原宿
回送
洛陽
涼子
生田
結核
赤城
首領
##ミド
##エクス
##ましく
##oration
オーラ
##ブルドン
##leg
天文学
リングネーム
マスコットキャラクター
仲良く
EF
ETC
hy
みと
ケア
ペナル
共鳴
大通り
廉価
揶揄
格差
森本
濡れ
行け
論的
顕彰
##ts
##クリア
##きっ
##パーティー
##ough
インフルエン
持ち込ま
##agram
mmF
##une
公民館
del
むら
オウム
世襲
僕ら
入線
吹田
尚書
建っ
当面
所沢
挟み
文脈
耐震
華族
邦題
高まる
##チカット
##CA
だけど
##サンブル
ソフトボール
キログラム
##AKA
ファミコン
ヒューマン
BLUE
##ECTION
オクラホマ
Na
だれ
まこ
わざ
カズ
ヒカル
一等
健太
先立
光景
各務
同書
宇和
旧来
極限
歩み
源泉
田代
留所
築く
簡素
義勇
高倉
##プティ
##UST
クラリ
##ARS
スクエア
Arc
Arch
ストライク
カレンダー
ロビンソン
ブンデスリーガ
Summer
ed
スチュ
ドッグ
ビック
乗船
優駿
基底
帰属
曲名
譲受
贈り
ファイン
ウィーク
##ural
ニュートン
手伝っ
IBF
Light
そく
ひかる
セーラー
ラック
取れる
基板
実録
滝川
稲垣
自力
観覧
部助
重く
##パルト
##ッショ
##ねん
##ions
モーガン
Class
ミッドナイト
ポルシェ
##intendo
ラスベガス
コネチカット
コンサルティング
ベートーヴェン
アディ
ドリル
ワード
一説
上る
京子
半減
心身
明言
欲望
無失
立派
絞り
雑貨
##ミラー
##ael
##gen
##鉄道
警察庁
プレステージ
非公式
Party
マカオ
Yahoo
CIA
KE
しげ
とれ
サリー
トロン
丁寧
制課
堂々
子会
客観
幽閉
役場
折れ
抜群
現時
生還
破片
軍曹
野心
##フレット
##イー
##コンド
##ダーマン
##ほとんど
##弟子
##erv
##ファル
ディスカ
##リエット
カルロ
ウィンブルドン
##ublic
Fr
MH
ラマ
リビア
会連
割っ
和彦
字架
巡航
感銘
戦績
撃機
敗者
文禄
望ましい
相性
粘土
遊戯
##ビック
##回る
日本ハム
受け取り
##ANG
##チャレンジ
ジャンヌ
##ンパイア
デュエル
ブレーブス
サングラス
Im
トイ
リプレイ
人型
原動
名高
正直
治水
腐敗
責め
銚子
##ロワ
##yle
##けど
##ペア
##らう
##越え
文化庁
##ファーレン
##OTO
##マラソン
シグナル
Mart
Nintendo
Switch
セー
ドジャース
レコ
外装
女装
対等
左近
気絶
汚れ
注射
無断
無双
盗ん
着ぐる
算出
絶大
葉山
請け
赴き
車競
迫害
連射
##day
##ny
##Jr
##ヨシ
##持っ
アルティ
##フィッシュ
コーラ
朝日新聞社
つけて
ANB
Instit
フットサル
CT
Gal
Hel
ほの
ソナタ
ワト
人道
問屋
愛さ
着目
社交
築造
給油
船員
辿り
隙間
青銅
##リゾート
##タンク
##ko
##ごろ
スタイ
##プロス
##ドラゴン
##APP
SPOR
##ダンサー
PSP
Edition
メリーランド
ギャラクシー
パラメータ
TW
にほん
らん
ララ
供与
喜劇
委任
川駅
愛する
慕っ
捕縛
旧暦
暴れ
杉浦
機雷
肥前
貞観
赴く
響き
##デッド
##おん
##自動車
##まね
##DX
##連れ
##ースタ
ウィング
##ORN
ガルシア
ピクチャーズ
Fire
Kiss
SRC
ましょ
テュ
ドック
リエ
リリーフ
京急
吉祥
堺市
戦中
文京
知行
絵師
美和
艦橋
鳴き
##レコ
##ッガー
##ビッチ
ジョイ
付き合っ
United
##UMP
Park
Il
Nav
シラ
タスク
大倉
天理
実子
実権
左岸
従属
憎悪
身代
近辺
遣い
魔族
##inema
カルタゴ
TOP
スパイク
ATP
マスターズ
Fre
und
ブタ
ベリー
下っ
主戦
充て
出願
函数
唐津
執っ
安永
富岡
岩井
手下
挟まれ
柔術
泣い
消火
石狩
讃岐
頼っ
魔人
##シード
##port
##ゴールド
##びん
##ストライ
テレビCM
最終話
STAGE
ジョーダン
##ニエンス
--
並木
入選
受講
大差
室蘭
更生
渡航
燃費
田島
病原
赤松
##ニム
##AV
##盛り
##ross
##ander
化学式
RKB
AW
OEM
そら
イキ
カッコ
ケロ
モリス
一括
上村
上がら
不快
仮設
共々
同調
大怪
戸塚
民家
知多
筑紫
紫色
終着
経理
絶頂
線形
鳩山
##バト
##ho
ロンドンオリンピック
##epp
インストゥル
Company
カザフスタン
Gi
LAN
」 
クィ
ボヘ
伊那
増資
対比
張本
強姦
映し
気体
浮き
漁師
照射
熱狂
肺炎
自生
製菓
覚える
身柄
##uch
##ッショナル
##バイン
##集合
フランケン
ディフェンス
ですら
ジャンクション
##リエン
##ボーイズ
##ケーキ
NR
PM
RT
TM
エリス
エステル
バッハ
光明
握る
本化
海中
海面
突出
艦載
行こう
連鎖
長時間
高裁
##トライ
##DE
##シャス
ジョヴァン
##んじょう
##OCA
##チャンピオンシップ
おまけ
Little
he
カント
ケベック
三木
上段
全高
公営
口座
培養
張所
恵子
打数
政宗
最寄
町出
筑摩
艦上
血統
西野
閣議
##ワフ
##by
##リボン
##テージ
##ズス
##リアーズ
ウィンター
##ICA
##unes
バーデン
##ファーソン
BSフジ
Grand
譲り受け
Euro
Fight
Mich
XX
こっ
まみ
ドキ
再起
宇多
定か
懇願
挙区
消える
発起
真夏
規範
訃報
訳さ
##かう
##り方
##ろしい
##委員
バスセンター
##ira
##AGUE
##っぽん
メモリアル
ドラゴンク
GHQ
A級
Big
Max
WBO
お気
コバ
ノード
両社
妥協
実弟
来場
格子
磐田
紀州
紡績
著しい
蛍光
西条
貸出
赤羽
##イオン
##ビオ
##ザート
##当主
##YO
##ery
##ンダル
##ブレーキ
Batt
book
イヴァン
クオ
センス
ヒメ
マッキ
之助
到来
即興
台駅
商法
回生
夢中
学業
安保
宿舎
座決
廃線
強行
拠れ
接合
父子
貝塚
頭取
##ミール
日本プロ
##レビュー
ジャム
ウェイン
レーニン
サイボーグ
Abema
レノン
人誌
休戦
儲け
再登場
国交
大竹
小浜
強かっ
法科
浅間
海南
消耗
肥料
英名
貧乏
##いき
##メリー
##バサ
##電所
フランチェ
##ブルック
##ッシブ
ボクサー
シャーロット
LEAGUE
ジョゼフ
モナコ
ギャンブル
GRE
アーマー
ルシ
乏しい
借用
全額
命じる
大喜
弾道
後編
恋心
旅人
未定
法施
疲れ
視界
風味
##ゼット
##政府
##ライフル
ディビジョン
ジャガー
プラグ
##スラフ
コンビニエンス
イオンモール
グローブ
LS
MI
Sant
TX
qu
タモリ
両側
交友
劇作
多種
大工
完走
黎明
黒幕
##ティティ
オーロラ
FESTIVAL
Sa
ru
』『
ケータイ
サバイバル
ルクセン
保留
停泊
勝て
吉備
坂田
急進
慕わ
村大
果物
紀頃
西端
豊岡
部署
重さ
降車
##ボラ
ローソン
モーリス
ポケットモンスター
サスペンション
Mel
Pat
Tre
さとう
ベンジャ
ペリー
リヨン
中居
久々
先制
分身
島本
従え
数名
津市
総集
若葉
離反
##ルート
##バレ
##KS
##こし
##EG
##キーパー
シュトラ
##erson
つなぐ
##マネジメント
クレジットカード
スプリント
Hol
Land
Rich
man
がかり
アステ
ブエ
ヨン
入間
共存
兵装
北道
味線
城跡
手帳
水族
親会
野中
銃器
##くわ
##トム
##メモ
##フリート
##ノラマ
##CC
##ジスタ
##届け
##ツネ
##ペシャル
##ーローズ
チェリー
トレーナー
電動車
ディーゼルエンジン
GEN
NIGHT
SUN
アリスト
コールド
ツィ
バチ
ブレード
リサ
妻子
強奪
感想
明智
流動
準州
激戦
発端
話さ
飛来
##メッセ
##ブーム
##バチ
##たん
##カタ
##HA
##ンチャン
ジョシュ
アトレ
グランドスラム
##ユニオン
モータースポーツ
埋め立て
ヒンドゥー
アッシリア
カスティーリャ
Da
サックス
ビジ
フッ
ミキ
メチル
初対
副官
助監
古屋
新車
東端
浮気
舗装
銘打
驚き
高瀬
##スカー
##プタ
##gr
ファイター
##obile
DeNA
テンポ
フリゲート
FBI
Gold
OG
PRE
でしま
ゼン
ナツ
ミクロ
一転
下着
中途
北端
因縁
山古
性交
東邦
濃厚
点灯
熱田
総面
藤子
鉄砲
養殖
##ta
##パルス
プロボクサー
いっしょ
マーベル
##シェン
Suica
パスワード
##earch
ハノーファー
サンパウロ
Direct
Free
Mix
SUM
TA
こぼ
サミット
ルーク
上っ
分から
大冒
度重
快適
森山
榊原
洗浄
諮問
車掌
鋼鉄
高尾
##メート
##治郎
##ビナ
##えり
ベイスターズ
まちづくり
EURO
no
オンタ
リフト
中道
代償
全幅
名跡
大仏
接着
新発
決心
狩野
着物
翻弄
蒲生
酒場
##アジア
##rol
##PP
##ゼーション
##シャツ
##シャフト
##els
インパクト
ロックマン
##ript
##ルンベルク
Pres
##ポリタン
あかね
NNN
ぼう
バズ
ヒン
ボンバー
ラベル
一条
共生
分化
前衛
妥当
嬢様
山野
工法
慈善
旅し
清朝
減速
畠山
策略
細部
自発
講堂
##gy
##さく
##ントラ
グラミー
##チュエ
##ther
アトリエ
リヴァプール
TIME
UR
ゆい
ラッキー
了承
入省
千秋
囚わ
回廊
国志
屋駅
広め
旧道
板垣
筑後
##ck
##メト
##コング
##テラ
##ませる
##統一
##特別
##ットガルト
アンカー
##ンガード
カリウム
小さな
トゥール
ファイブ
引き起こさ
アミューズ
BEAT
アダルトゲーム
County
インストゥルメンタル
Si
WIN
ランチ
加納
叔母
地雷
小杉
島内
持参
有り
沈ん
筒井
義父
脆弱
褒章
語彙
軽巡
速さ
長安
##イェ
##バオ
##CT
##カライズ
##リスタ
##ilm
ウォルト
パラリンピック
抜け出し
がわかる
おじさん
サトシ
アレルギー
ドラゴンクエスト
xx
まな
トリック
備中
全列
内線
刈谷
後進
日数
未熟
柳生
校章
桜花
注い
産生
結界
製法
身近
##ミヤ
##オート
##ani
ジェル
建設省
##ウィッチ
##ウェーブ
##ISE
ハンセン
ルイジアナ
留学生
サムライ
スラヴ
Book
Ca
うじ
スモ
スカル
五輪
円盤
刷新
南大
史家
国代
売る
安達
巻い
後押
政友
服用
未だ
礼儀
複素
軍需
関根
黒澤
##サード
##ライス
##ーツク
サーチ
ライブハウス
おおよ
前年度
オスカー
ベンジャミン
F1
May
su
たまま
とその
クッパ
ニセ
ハプス
ビア
庇護
拡充
架橋
泥棒
清算
眠っ
硫酸
限られる
##アール
##ボイス
##ザイク
##go
##OG
##ぐみ
##コースト
タイトルマッチ
作り出す
毎日新聞社
中華民国
ブダペスト
立命館
ルクセンブルク
End
Ju
Type
YU
オデ
レポーター
個展
同業
塩基
大別
居る
掃海
溶解
熱中
爬虫
甲賀
申告
監獄
絶命
蘇生
重用
##ウオ
##HER
ジャワ
##ヴァルト
Stre
##ルドバ
##irc
##シンキ
##ITE
キーワード
クーパー
読売新聞
##クイーン
ピッツバーグ
ハプスブルク
Boy
HM
Luc
たば
マッケ
並列
人賞
入札
刺客
匿名
整形
校教
殲滅
産物
直属
終日
美しく
虚偽
##バダ
##カレ
##ローナ
ディーン
クラウス
フルーツ
Show
LIFE
バレンタイン
White
Cre
J・
ab
すり
ドバイ
休館
号館
名曲
宛て
強固
新町
沢村
草原
配偶
頭文字
飲酒
##マイト
##ぷり
ゲームオーバー
##oud
アーキテクチャ
ライブラリー
##ストラップ
スーパーボウル
プリント
教え子
Charles
CN
みせ
パケット
モト
乗馬
半田
右岸
吹替
徳山
日時
校地
程修
見逃
見込ま
銃弾
##ートニー
ホームラン
##ルドー
話し合い
Phil
ぬいぐる
Lim
pp
すい
アライ
マスカ
ミッキー
モダン
ルター
不況
全勝
唱える
実母
市警
愛子
推力
松阪
歌曲
茨木
蒸留
試練
風船
##アニ
##ロニア
##テー
##せつ
##ペー
##切られ
##ula
##テクノ
##フロント
プロフェッショナル
Thomas
ESP
Hist
さだ
ニーズ
ノリ
ホーン
冷酷
名字
廃墟
戦災
手動
批准
王冠
留まる
益田
真夜
美穂
美咲
翌朝
耕作
葬られ
親しい
麻布
##ague
inc
##チュウ
Sports
ポップス
スキャンダル
Happy
MIX
カ所
コソ
パブリック
両立
低気
光子
勃起
右京
吉原
妨げ
幼年
懸命
抜ける
株価
沿革
炎症
西園
開ける
預言
風刺
##ずり
##代子
##思い
フランコ
乗り出し
ダイジェスト
競馬場
##プラノ
##フォンソ
吹き飛ば
シュトゥットガルト
Sk
おね
ひばり
ゲノム
ユタ
リットル
三日
上川
和也
因む
山上
戦役
本島
機内
歌集
沈黙
直人
聴き
苫小
遊歩
銀色
限っ
震度
##クリエ
##HD
##olf
##カルチャー
ハーレム
##obe
もいえる
リモート
マヌエル
Rain
as
イシ
ビジョン
メッツ
ヤー
卸売
日後
用心
納税
解き
造語
門人
闘機
##新しい
##開き
##扱い
##ティーン
できれ
フィッシャー
アンサンブル
ブラザーズ
アニメーター
そういっ
ライブラリ
どうして
オープンソース
カンファレンス
##ADE
ポートランド
JFL
アウェー
ノベル
付録
代名
会理
同学
夕刊
揃え
校前
校生
水銀
水雷
治虫
源頼
瀕死
長良
##かも
##gar
##カレッジ
##ディウス
##ープロ
##ングループ
ボーカリスト
アマゾン
##awa
COVID
North
Dance
Elect
Mat
たた
カルト
カオス
グー
ベニ
上洛
健太郎
吉井
本間
河村
破れ
聞社
踏ん
農園
金利
馬主
##oon
##ポス
##がれ
##まか
それと
##inn
スーパーロボット
Child
しつつも
後楽園
マッカーサー
あかり
ハラ
バイア
マンス
下表
京極
公用
兵員
取組
国歌
多賀
安部
射出
恐らく
漁船
苦しん
触手
近似
退去
間際
陶器
##ワート
##ボム
##セー
ジョブ
オリオン
シャーマン
##チェル
クレヨン
逃げ出し
##ジョー
Instagram
##otten
おろ
おれ
おの
とび
みき
もわ
デフォルト
ホールド
列局
合間
地味
奥羽
新庄
水原
直訳
血縁
覆面
誘発
野々
雲南
##ブロー
##エンジニア
##ヘイ
##ティックス
##ste
ペンギン
Leg
幼稚園
パンタグラフ
てつ
よこ
エラー
ピート
フン
ヘビ
レッズ
上尾
伐採
冷蔵
動かし
北魏
原告
圧迫
文春
欲求
注入
特産
犬山
福知
積分
郡域
音頭
##スン
##ロリ
##MER
ジャイアント
ヘルツェ
エドゥ
おそれ
についた
ブリュッセル
##スコンシン
ネック
バッジ
バンタム
信じる
健全
分社
客席
店街
建武
恐慌
梶原
生計
皆無
自律
菅野
裏側
込み
部会
##ホーン
##男子
##ぷい
ウィスコンシン
##ular
とどめ
ゲルマン
浮かぶ
スローガン
##volution
Ult
iT
ふしぎ
カンタ
ルース
令嬢
分担
可視
右派
子音
容認
居場
智子
有能
死因
石器
祭壇
突進
繋ぐ
臓器
荒れ
術師
覆い
解か
陣屋
面識
高騰
##キナ
##すり
##設立
Inf
カリスマ
Del
おに
だか
れん
ホープ
ボーン
仏滅
再利
列挙
古事
存命
帰投
田川
神官
義兄
農産
飛車
##ガム
##キスト
ヴァレ
##ュージョン
サラブレッド
##aint
##bert
初音ミク
ロドリゲス
チュニ
並み
侍従
倒壊
反する
執着
宝永
尋問
憲章
榴弾
照準
着せ
舞踏
転々
阿南
龍馬
##トリス
##マニ
##ルイ
##ゾー
このころ
ニューオー
スペック
ノーザン
リベラル
ゴルゴ
あすか
Lu
」(
クレー
コンスタ
主計
亀井
以北
余剰
兵隊
分頃
土俵
天竜
文理
榎本
法改
畜産
矢部
税務
芦屋
論者
貯水
野沢
##con
##くま
##メンス
##イラスト
##タイヤ
##利き
##みず
取り込ん
##ional
インフォ
スーパーファミ
##クラテス
プリメ
カウントダウン
オンタリオ
Over
Vir
われ
オリーブ
クン
サヴォ
セクター
ブレス
下降
不祥
中南
中頃
他界
公判
子宮
有楽
柏木
桜木
江原
王宮
老舗
荒井
請負
赤ん
黒木
##モニ
##チモア
##LL
##DAY
##渡す
##飾り
というわけ
##フィル
##hem
撮影所
いいとも
繰り上げ
##aki
##ACH
##ベースボール
請け負
Pan
とち
エーカー
オード
タイト
デコ
パトロール
マタ
ロート
入江
十分
参列
官吏
射精
掛川
次長
段目
津川
滑り
直す
鉱石
降っ
養育
駅員
##ニェ
##モル
##ジメ
##gram
##ピラ
##ウルフ
##zy
##帰り
##電気
フォア
##コーポレーション
アクシ
スクロール
なんと
ディズニーランド
クローバー
##っぱい
##まつり
サタデー
FRE
← 
あべ
そちら
にっぽん
コリン
ソマリア
ツル
ペプ
マテ
リフレ
兵連
勤講
年数
故意
甚大
艦首
苦しめ
藤枝
通達
##ドッグ
##RY
##リータ
ウィズ
マルティン
イースタン
Dig
POWER
RX
key
かま
ぼる
シマ
ズーム
モーション
享年
前向き
医院
単線
場内
宝物
宮沢
嵯峨
市市
広げる
廊下
採り
推計
母子
##イカ
##コフスキー
##焼き
off
記念館
レイプ
カンヌ
レッドソックス
##ude
子どもの
IDOLM
インフルエンザ
ニューオーリンズ
にて
マウ
リサイクル
ワイヤ
信夫
凶暴
史研
土休
夜明け
念願
慰霊
授賞
操り
救世
物品
祝い
赤く
身差
降る
##エビ
##クー
##ハリ
##ティコ
アイデン
##スコート
シンフォ
フラット
セルゲイ
アスリート
##アメリカン
GIRLS
クラリネット
Di
NK
OC
Roy
per
よろ
よかっ
クリーン
スン
セクシー
ナンパ
ボディー
今村
加担
国名
国税
好奇
寒冷
山名
帰化
捧げる
支那
治癒
田畑
脅し
花序
言論
##ブックス
##ラッシュ
##バスケットボール
パーフェクト
資料館
アイスホッケー
取り扱っ
フィリップス
Vis
rad
しも
とわ
スム
ホモ
休み
前編
喋る
小谷
本曲
村内
松坂
理恵
皇女
目前
目さ
眺め
祈祷
菊地
貰っ
賀茂
赤ちゃん
##ロク
##ful
##開催
##レーナ
フェミニ
ウェスタン
##ume
ギャラ
ボルチモア
大西洋
スティール
オースティン
シンセサイザー
Society
ナチュラル
Fest
KING
KDD
えり
エミー
ポッド
一線
中尾
仕掛
判別
小豆
怪盗
拾っ
揖斐
肉食
襲来
赤道
黒沢
##rich
##ムラー
##ツク
##みや
##ユキ
##殺し
##空間
##並び
##itch
ランカ
ヴェルディ
セルフカバー
ジョルジュ
現時点
Dan
KT
はつ
みか
オバ
ミミ
ラピ
不合
世俗
判例
宮島
市上
文句
早世
明神
植木
焼け
王政
発効
目玉
窃盗
精製
行先
語名
賢治
鳴門
##itz
ジャス
##カルド
ウェン
支払っ
トライアル
ボウリング
背負っ
大冒険
Center
がえる
やつ
やろ
コマーシャル
ペー
ミケ
リサーチ
乗じ
余地
内面
前夜
奏曲
女児
彦根
本丸
本性
枢密
構図
毛皮
氾濫
産ん
用紙
美里
自我
親し
##ミサ
##ムント
##ゼント
ストーム
##ショック
スパイダーマン
ニュルンベルク
マッカートニー
ポピュラー
A面
Lab
Mad
SKE
なご
マウンテン
停滞
初年度
古文
同定
啓蒙
客船
専業
木更
東横
直行
相関
福原
税金
空白
粛清
美智
補う
西区
贈られる
車用
##ブラー
##たか
##ツール
##企業
##ディオン
アイコン
持ち合わせ
ラジオドラマ
ヴィー
ランニング
スキン
DB
Vi
さっ
そん
やん
カフ
ガリア
テニ
パ・リーグ
ポジ
主軸
以西
伏せ
健在
周防
必然
懲戒
海道
萌え
##IF
##ランチャー
##arm
取り囲
ジョアン
ウォール
##アイテム
コンピュータゲーム
グレゴ
##フスキ
##uki
アーケードゲーム
検察庁
JS
Sur
つづ
アッパー
エト
エッジ
グラー
シリアル
ニャン
了後
剣士
叙任
壱岐
学力
担保
消極
点火
無力
相方
脱線
転出
##タム
##ガラス
##披露
あっさり
ファウ
##omb
ベルン
パーソナリティー
フリーランス
取引所
スマホ
##キンソン
つくっ
YouTuber
Champion
EM
KC
ビクトリア
ピュー
ムル
上告
下げる
下がっ
団結
土日
城南
嫌う
宮駅
島々
市出
悪影
拡幅
毎時
譲る
銃身
類型
高官
##ネコ
##分子
##込める
取り外
ジャパ
##イスキー
##ルスク
##ida
##ures
パーキング
パンフレット
##チューン
収容所
Island
Office
グラビアアイドル
ヴェストファーレン
-(
Jour
ござい
エヌ
サガ
トレイ
互角
伝送
信条
偶数
准将
前番
各自
員数
委ね
嫌わ
有吉
検知
水質
物学
立山
被爆
託さ
買わ
都城
##cess
##きょ
ディック
##クトップ
フォレスト
フェデ
##ANA
##バルディア
Studio
追い込ん
##エンヌ
クリニック
エドガー
カタール
ハムファイターズ
##ンチャート
まどか
iTunes
JB
KB
Ter
res
やし
パブリ
モス
一色
咲く
大金
奉公
寄席
水槽
渤海
略し
石山
軟式
随筆
##マム
##・B
##せき
##多く
##elf
アーノ
チェンジ
##ope
書き下ろし
トゥル
プレイヤーキャラクター
マグマ
ウイグル
不適切
Album
アワー
アブラ
ケビン
マッハ
ルビー
ロータス
主たる
人力
充当
初披露
守山
快楽
断り
老中
華麗
誠実
近海
配当
長島
飾られ
##モバイル
##ple
##よい
起こさ
Station
アラバマ
ファイナルファンタジー
Franc
第一次世界
ライプツィヒ
House
Master
Oper
Tim
mix
ばらく
アスカ
キヤ
ゼウス
ネガ
ボトル
レトロ
レフェリー
伝来
劉備
化後
北原
占有
受領
大岡
教材
王権
番長
綺麗
繊細
育児
訳語
議院
跨線
輪車
通告
選任
関銃
面々
##くれ
##工場
##vs
##短調
##ングラ
キャノン
オリコ
STV
Ant
アトラス
ガンマ
もしも
ACT
マジカル
トレードマーク
What
SRCL
ジョヴァンニ
JAM
Ob
PE
gl
かさ
らい
ナウ
レガ
レンジャー
川河
帝王
故人
替わる
東国
正則
流体
田駅
発熱
祝う
組まれ
誤認
鶴田
##isch
##シャトル
文学部
広く知
##ナイター
キングレコード
##iano
ペルシャ
スタンフォード
気づき
アテナイ
赤ん坊
Top
Wr
Wil
sy
tra
スプラ
セレクション
バックス
噂さ
宣戦
延べ
未開
桃子
殺到
汽車
渡部
終末
舞う
行え
規律
通科
##トール
##グモ
##tm
##マイズ
##パンチ
##ヒルズ
##進め
##過ぎ
##リスク
生き物
組み込ん
デュオ
カタカナ
参議院
はじまり
ノンフィクション
##スワローズ
ヘルツェゴ
Bra
Home
SB
col
いまだ
ウイン
ケイン
サプライズ
タックル
テント
ドニ
上総
世に
信越
分教
卓越
実物
林業
海部
産む
緩やか
美作
螺旋
褒め
邪悪
醍醐
鎮守
長兼
高見
鳥栖
##ノブ
##おる
##行っ
##ぞく
日本国
##モンテ
##ブリュ
##スペル
はるか
でくる
心理学
トランスフォーマー
ダイナミック
最寄り駅
George
JUN
Mal
ind
~ 
アゲ
ズボン
ドール
一社
南区
古田
名勝
埋立
大雨
山王
州出
悪夢
新鮮
旅立
筆記
線型
練り
茶道
郷里
##アングル
##モフ
##負け
##ニアム
##itar
ストレ
##ote
ウォッチ
カーネル
ウィキペディア
マスメディア
##tainment
("
Back
HS
HY
Wal
あそ
がれ
ハメ
フレー
フリース
兵師
大帝
室長
小石
屋鉄
探る
明星
来訪
染め
洗練
県川
級戦
聴覚
著述
蒲田
語表
返答
金正
鉄鋼
##ながら
##ole
##ハード
##ぶつ
##粒子
日本版
取り締
バスケ
##コンテンツ
##キャット
##agon
べきか
トンプソン
フレンチ
トリガー
アップル
ブランデンブルク
キッチン
ギミック
ヘレン
ベンガル
ミレ
リリー
下宿
前座
創価
在庫
堀田
幕僚
拓也
族自
時事
月面
気仙
没年
眠る
短大
神輿
続出
長田
##ミテッド
##立てる
##NC
##va
##ストリー
##ouch
ジャンボ
ザ・イヤー
##リーンズ
##ECE
##ストロング
大相撲
フィーチャー
##エンターテインメント
Cast
Lou
オメガ
ホーク
ロペス
似て
値段
同化
左京
年限
所内
極秘
水木
漂流
特訓
社化
西北
見捨
誤差
酔っ
陸海
難航
##リフト
##ニャン
##テニス
##っきり
##ヨウ
##どき
##ゾウ
といって
おいしい
##レンツ
ローテーション
書き込み
シルエット
気付き
ギルバート
スナック
レプリカ
Hun
Lo
キョウ
ネーム
ラルフ
会副
再録
右足
啓発
少量
岩本
平戸
床面
怪力
教習
日生
清原
瑠璃
竜巻
細く
色素
造園
部所
##メロン
##ソーム
##きる
##ージナル
##ison
ステッカー
ウェルズ
ユーリ
シンシナ
ソ連軍
メイキング
##がらせ
ストックホルム
Oh
TB
UK
ふう
クレーター
スノ
ボム
ムン
リマ
レナ
レジャー
三好
催し
傷害
共学
埠頭
払う
数ヶ月
新版
混血
災い
狂気
社大
苦しむ
見なし
##ワル
##タク
##ランナー
キャスティング
担当者
自由民
江戸川
##ury
生き延び
メインキャスター
ルーシ
キングス
ひろみ
ディーラー
ハロルド
アインシュタイン
取り壊さ
music
First
Year
さほど
すば
にかく
ヒール
リンダ
事柄
供述
坂東
小国
布施
平氏
慣例
捕鯨
油圧
激闘
瀬川
稲田
給料
織物
草野
荒野
越し
隷下
黒崎
##アーマー
##イーグルス
##サマ
##ウラ
##ウキ
##ユーズ
ジョーカー
持ち出し
チェンバ
##コーダー
キロワット
##onder
ファミリーコンピュータ
エンジニアリング
アンソロジー
ボヘミア
MEN
Rom
ps
うん
スナイ
ソルト
ミト
体勢
初年
字型
完封
御家
恵那
有線
森下
水害
由美
相良
石見
空戦
見下
連帯
電器
飛翔
##よく
##amil
ティル
バラバラ
##ious
USA
##サイユ
テクニカル
EXILE
もいわ
ヤクルトスワローズ
ひがし
コンビニエンスストア
Die
Hall
JT
もえ
オシ
バプ
ビザン
ブラス
ヘヴィ
上人
中之
傷つけ
具合
凶悪
割譲
得なく
村名
極楽
正午
水没
狭山
神事
組長
綾瀬
転任
辰巳
長き
##ロッド
##エゴ
##ボトル
##ぶる
##まみ
##食い
##ぼん
##尽く
##ラーレン
引き出し
持ちかけ
Stud
グリッド
おもしろ
GPS
シンシナティ
AE
AX
HK
PO
んか
アーツ
オラ
トータル
マヨ
レート
中流
仁川
回顧
困惑
大牟
竹下
縁起
荷重
重なり
長江
麻里
##パーティ
ギャップ
グレッグ
ボリビア
DOS
VF
With
nm
エント
シモン
リール
レンジャーズ
下る
下町
企て
円谷
制動
地価
工兵
彼方
撮っ
新進
東松
松崎
校校
機長
章受
肥満
飯島
高津
##ty
##UYA
##参加
##ストラクター
##ジェネ
##んどん
ジュリアン
##ルドルフ
##aku
##AYA
##イングランド
##バラエティ
パイレーツ
パスポート
##ファミリー
ワークショップ
すごい
ラファエル
オリコンチャート
アエ
コイル
ニャ
パプ
ラル
出征
匂い
地層
失望
官邸
導か
本系
村井
特製
簡略
系外
総領
膨張
良き
藩政
賭博
黒部
##サーン
##デシュ
##ga
##カウ
取り込ま
##スタル
Store
ヘルシンキ
間違え
##やすい
##マネージャー
##ビュート
インテリ
Great
UFJ
Cry
オホ
ビス
モラ
ラド
レシー
兼ねる
同義
増やし
壊し
天守
平城
払っ
枢機
柏原
根室
武官
洋楽
海浜
灌漑
線交
角田
許す
頓挫
##レッタ
##まき
##出そう
##ティアン
##ッチメント
ストリーミング
##ヴァイ
トラップ
いわば
言い渡さ
##ista
アトランティック
Cy
VI
Zepp
じゃん
ロイヤ
一発
勝山
場時
嫡子
愛車
改番
本記
機首
残骸
没落
治め
溢れ
町中
磁場
秀賞
究会
竹本
財務省
過度
野戦
長時
頭蓋
##サロン
##GHT
##ガミ
##LIVE
マルク
Stand
デュアル
チョウ
モノクロ
イエズス
落とす
デスクトップ
めぐり
ドレスデン
カエサル
ウズベキスタン
Av
Run
UD
すき
ドナウ
ナゴ
ナショ
ピョ
人魚
入港
参院
市中
独断
誌上
軌跡
##ちゅ
##着い
##atic
なくし
##ンタイム
##idae
##チェスター
生き方
ロックン
全く異
##スペクト
亡くし
Tomato
バトラー
コンスタンティノ
ピックアップ
プエルトリコ
PT
QU
Sweet
VO
きた
付か
停下車
大明
川線
幻覚
弁天
捕まえ
新駅
木津
業協
水車
法上
滝沢
甲州
芝生
視線
計上
走者
配線
門前
防具
頼む
頼まれ
##ッレ
##っぺ
##付い
##蹴り
それより
ジェファーソン
##ショッピング
シュテ
ユーモア
##ツィオーネ
初出演
チャーチル
ブックレット
ヨルダン
スチール
Just
ばね
やっと
デア
ハブ
メロン
ラボ
リカ
内親
小平
平壌
成瀬
成虫
打たれ
捕まっ
数日
水沢
永正
消去
異議
秋月
美子
習い
謀反
野手
##ワゴン
##ford
##公式
取り上げる
チャット
バラエティー
アトム
ド・フランス
##ナンシャル
ガーディアン
ネイティブ
押さえ
Angel
ペナルティ
スーパーファミコン
 #
Are
Gra
HOT
Ol
SV
トモ
主君
先住
刻印
動脈
厚さ
叙せ
台中
増す
夕張
山林
建つ
投影
日替
時系
東小
無敗
破滅
積雪
絶縁
聖子
脱獄
賢者
足跡
離島
##uz
##ブロン
##パッケージ
##ナダ
##ソロ
##ヤード
フィット
ファッションモデル
ツイッター
Ext
Games
min
アユ
アヴェ
イルカ
ブースター
両面
中絶
大麻
奥義
孫娘
手渡
整っ
残虐
稼い
航続
製鋼
誓っ
躊躇
重症
釜石
##ビリティ
##クライ
##ドックス
##ヤシ
##全て
##特急
スペンサー
小田原
おこなう
一塁手
KDDI
Pop
ひる
スバル
パルマ
ビースト
ラオス
リコ
レパート
ロッド
壁面
多項
実数
常小
従前
打球
捕え
木戸
海側
漬け
究員
裁定
##いす
##ji
##きち
##びれ
##ージメント
引き渡さ
##unk
殺し屋
こだわり
Official
カブト
ふさわしい
SPORTS
ブエノス
Cor
Jon
Kh
おど
こみ
エリカ
ノーマン
マスト
圧勝
将兵
待た
志す
応永
悟り
拝殿
有る
滑らか
矯正
童子
粉砕
紫外
統率
齋藤
##シク
##バックス
##ware
##舞台
ブラウ
クロック
##プロセッサ
とどまり
メトロポリタン
ソフトバンクホークス
カスタマイズ
チェルシー
タブレット
NAR
Tem
エプ
ゴート
バター
代金
全焼
助演
原村
合会
垂れ
形質
戦列
戸惑
正徳
町民
画期
福建
臨済
葛西
農作
配し
願望
##ule
##しげ
##ノワ
##テュ
##ベックス
##ZA
鉄道省
##asc
スターリング
サイパン
フレッド
読み切り
##ガスカル
浴びる
バークレー
##GBT
South
Michael
OUT
Rotten
たえ
カド
キプロス
ゲッター
コモ
ナミ
丹羽
体積
内心
千鳥
同郷
君臨
恋し
掛かっ
提訴
曽根
材質
業態
正方
民生
短時間
精鋭
長髪
高台
##グッズ
##パフォーマンス
##チップ
##GT
##リーノ
受け付け
ファンド
ファステ
フィッツ
引き取っ
##チャイルド
##ARE
##ids
スパーク
Rev
##スペース
FIA
たまご
NEO
##angu
レオナルド
出張所
アームストロング
バリアフリー
弾き語り
すみれ
How
セダン
ナマ
低価
偏見
同好
市外
年鑑
怪奇
恩恵
時速
染み
空隊
笑う
蔵人
親密
陽気
隠蔽
##アレンジ
##メー
##キッド
プロポーズ
キャバ
ますか
サンシャイン
##つけて
キュア
クリーク
ミラージュ
バンダイナム
もかかわらず
AbemaTV
Tomatoes
mod
tv
いずみ
たわら
ひな
ワゴン
下山
仏像
仲裁
内訳
同然
外壁
幸子
延宝
新東
本科
江口
環礁
直下
祀っ
話者
違和
限度
雷戦
##かえ
##サポート
##エージェント
##関東
##及び
##張る
大学部
##ange
##シュト
引き渡し
いちご
BLACK
立ち向かう
カクテル
マダガスカル
コソボ
Ben
Kr
かわり
エヴァン
カンパ
ハク
仕掛ける
各都
商社
尾翼
彼等
悪人
挙兵
揚陸
次車
沙汰
溝口
牡馬
着色
精通
腎臓
長井
間柄
面目
##チレン
##ヒドロ
##ティション
サンライズ
チャリティー
##キャノン
プライバ
しんちゃん
スイート
##イレブン
##いちろ
タンカー
サウスカロライナ
スライダー
Wom
はまだ
カビ
ナカ
ペレ
ヨット
上智
井川
亜美
同情
回す
多治
太い
密集
布教
指針
携行
札所
柳田
歯車
残酷
海防
添付
町議
皇太
監察
組曲
網走
診察
語大
麻美
##やり
##mas
##ナリ
##eration
##ala
##チャンス
##ッツィ
##ORA
コロコロ
##オーディション
デ・ラ
##アイレス
##ハーサル
大震災
Days
Mont
West
サニー
セブ
チア
不全
元老
原油
咲き
富ん
従者
戦初
撃っ
文武
聖徳
苦痛
蔣介
藤堂
裏腹
野線
騙さ
##アワー
##ロマ
##ベロ
##ヒド
##Sc
##たく
##UG
##BR
##フォート
##ヴィング
##ters
負け越し
##ブレター
##mann
COMIC
Corporation
マディソン
im
mon
ちび
キタ
サキ
モットー
全株
前任
号墳
呼応
大英
平民
引所
応急
所定
景勝
田線
稼ぐ
総指揮
裏切
誘う
辞し
述懐
速水
野川
院内
面影
頻発
##ッディーン
##サーズ
##ツジ
##ンタイ
シングルチャート
ステファ
##ウィング
アカデ
ちゃんねる
エアバス
##けんりつ
##ーネント
見つかり
ファルコン
こども
チンギス
ウエスタン
Jean
プリメーラ
不祥事
レパートリー
IA
da
よばれる
パンダ
ポリス
元祖
合祀
向井
堂出
売場
大柄
太一
客演
富裕
州間
床下
捉える
掛ける
日出
星雲
栄一
止まら
洋沖
罷免
観賞
誓う
谷山
間近
顕微
騙し
##ミラ
##メキシコ
##キリ
##ぶさ
##さず
##マンダー
チャック
ウェルター
##ARY
##ally
##azz
アタッチメント
##ugh
みずほ
取り消し
Street
三日月
CAT
Rail
はぎ
セーラ
伝授
反感
変革
女房
安い
寄宿
山西
工廠
戊辰
登る
登っ
絵柄
親しみ
貫く
費や
超大
阿賀
須藤
##リド
##ボリューション
##ori
ときめき
サンプリング
##ヴェー
アラゴン
##チョフ
AND
##リュウ
グアム
リッチモンド
ラバウル
マッサージ
アーノルド
Ba
GC
KAN
XP
ов
シスター
セ・リーグ
ソリューション
ネプ
ブカ
ベロ
ヨコ
先立っ
共編
口腔
叶わ
廃し
敵機
文人
東高
棋院
河出
源義
真人
着想
編著
試行
通例
陛下
音節
##of
##gan
##ナカ
##回し
##逃げ
##lement
ブラザース
のちに
ヴェー
読み上げ
連結子
##セイユ
アテネオリンピック
レジスタンス
MK
にゃ
イスタン
シング
ヌード
ハレ
ロリ
刀剣
切腹
南小
恐ろしい
恒久
悪さ
抑圧
握手
数える
敷か
日田
暮れ
村落
止まる
残念
燃える
真ん
神明
精子
続投
纏っ
落として
語られる
贈っ
農耕
##パイア
##ホフ
##うじ
##ソリ
##伏せ
##ライザー
取り出し
プロレスリング
クリエイター
デューク
Gar
IG
うみ
ひょ
ひみつ
カージナル
ソプラノ
タグ
トミ
トマ
ナイル
ノブ
ヒドロ
ヨウ
久喜
修繕
取水
国債
心地
新道
査局
真一
真由
西本
##ワイン
##マリーンズ
##テレス
##ガリ
##もん
##DO
##ージング
フォロー
こうじ
##irth
ランナー
知らせ
##ORI
inst
ターナー
送り出し
##キューブ
WWF
大公国
問い合わせ
##rown
ラトビア
鳴き声
ヘルツェゴビナ
Vocal
さる
しげる
コルト
サタン
バディ
レベ
井口
前川
南緯
参詣
土方
城郡
城郭
執拗
山門
挙句
敏感
明王
暗躍
正人
比叡
海抜
猪木
生む
羽目
蜘蛛
謙信
車輛
野郎
魅了
##cl
##ios
##シネマ
##バク
##っぴ
##ヌイ
ものの
テレビアナウンサー
ドラキュラ
カーボン
##キュリー
ルーシー
##azine
##ゴーニュ
General
インデックス
Bus
Dem
Get
RF
RD
イク
シンジ
ソープ
タツ
トーン
ロースター
ヶ国
下す
両軍
争奪
前頭
向ける
否決
和音
哲哉
学期
快く
支庁
欠如
熟練
苦情
街路
要人
軍第
遠江
阿武
雨宮
##割り
なおこの
##ami
持ち上げ
スーザン
##ちゃう
エクア
##ーグナー
突き刺
##OKO
オークション
ガリシア
非公開
MiG
レディース
##ッチェル
エスカレーター
PIECE
Institute
グレゴリオ
ブエノスアイレス
AIR
アニー
アロン
エディション
キラー
サメ
ナンシー
レギ
ワイヤー
募金
受理
同族
国史
多忙
大槻
工具
幻影
心優
恩師
日和
曾孫
武帝
注ぎ
温厚
湖畔
病弱
相変
綾子
致死
高井
##コラ
##ジカ
アルカリ
##レーサー
##ova
ハンナ
モンゴ
組み合わせる
描き下ろし
API
コックピット
CAS
htm
しい
ほし
めい
ハッシュ
中町
京橋
伝播
召し
市庁
幸運
式内
振っ
敗走
施す
最先
板倉
様相
膨ら
補修
贈呈
電荷
##ニラ
##ネク
##レアン
##マイオス
##oid
##ja
##止める
コンコース
アイディア
ランディ
立ち上げる
スクリ
##ヴォン
##ンステップ
すずき
DISC
Championship
ゆず
アントン
エディン
エリオット
ザク
パウル
ヒルズ
リハーサル
一周
信任
内乱
同心
周目
因果
屯地
弾い
役柄
後醍
微笑
森川
残党
沙織
物価
独り
神山
筑前
聖歌
衛隊
賞品
都会
長調
風力
麻呂
##eum
##ッシャ
##nal
##ハット
##ばやし
##返っ
##べく
##払っ
##ティヴ
さらば
Story
乗り物
勝ち点
再開発
オルガ
スタンプ
ノウハウ
BRE
Nat
まくり
れず
ブリス
マハ
上山
下層
不服
仕込
傀儡
加害
反復
均衡
戦況
是非
架線
登用
童貞
限る
駐日
鴨川
##リニスト
##スロー
##ブレイク
ジェイク
ステラ
マルセイユ
コミカル
かわい
申し入れ
ヤンキー
セレブ
保安庁
にわたり
飛ばす
##エクスプレス
フランチェスコ
カージナルス
Ak
なむ
クジラ
コープ
ネギ
パッチ
ホース
リニア
使役
傾倒
勢調
参与
収縮
合致
国文
大林
小路
届ける
正史
気球
若さ
西岡
覆っ
野駅
長久
順子
##わう
##テオ
##ヒム
##デース
##歩い
サンゴ
##シェヴィ
イメージソング
Real
マクラーレン
##ポンサー
置き換える
物理学
League
リニューアルオープン
造船所
##オールスターズ
Green
ダイアナ
聞こえる
シンクロ
かえっ
Road
新記録
##チュエーション
BAS
お茶
しめ
アット
カステ
コラ
マゼ
ミノ
冠番
別当
大晦
学博
打線
拾わ
放題
文言
本誌
森永
欠い
気配
白馬
美貌
行なわ
被疑
風習
魔獣
##グレー
##フロー
##キシン
リーディング
コーポ
##ルスキー
パーカ
##ape
##ジュニア
Rep
##istr
グリップ
##ender
掛け声
大久保
バットマン
多く見られる
Baby
ソユーズ
ホルン
ボロ
創出
勇敢
南宋
叩く
士会
実名
序列
急逝
態勢
新京
服役
未勝
末尾
東野
総本
腐食
自決
蒸発
被弾
高円
##サミ
##ダーク
##ズィ
##続い
シュウ
エンブレム
サイコロ
シェフ
ブルーノ
##OTE
ヒューズ
Network
##ウォーキー
どころか
ZIP
クエ
ゲッ
テール
デザート
ロッキー
井原
側線
変速
探求
斡旋
柳川
由良
真正
石造
秘宝
蔓延
西国
貫い
近傍
退院
遺骨
##しめる
##ポケット
##ナガ
##ガルド
##さえ
##iness
##ヴィッツ
##INK
ジュラ
思い込ん
クラブチーム
トロフィー
プラットホーム
ロッテマリーンズ
スルタン
Soul
スチュワート
ファステストラップ
Media
PAS
id
もこの
アスト
セオ
パット
ベオ
三輪
増援
大海
如何
寄港
得られる
水位
決算
河岸
浜崎
登り
祀られ
茂木
葛藤
開示
隆起
高位
##テーブル
##net
##入っ
##げき
##ランドル
ライス
ながる
ステファン
ヴィーナス
コミカライズ
シンポ
##ザンヌ
アスキー
BOYS
伸ばす
インスリン
Entertainment
アイドリング
FX
Pri
] 
みられ
エッグ
カノン
ギネス
ノヴァ
プトレ
ベジ
ボンド
リチウム
優賞
光秀
切符
即ち
原典
年号
成形
手放
掴ん
本級
漁獲
矢作
藤崎
軍機
退位
騎馬
##ca
##ミツ
##テア
##教育
##ティマ
コンボ
タイラー
##adem
フラッグ
アイドルマスター
##ッサム
ホイット
##ガイモ
College
キャピタル
不完全
Hum
KN
Les
Rac
RED
WC
さみ
づける
にみ
ケルト
コモン
フレンズ
ベータ
人達
侮辱
別称
劣勢
収支
吸気
国教
城東
失調
強襲
征伐
意地
月光
検閲
演者
父と
片道
生家
砲身
科大
紀年
縦断
胎児
西原
郡上
都港
##トウ
##リケ
##アクター
##ネグロ
##ルール
##oom
##うり
##決め
##生き
##DJ
##ディナ
キャリー
サンテレビ
ライブツアー
アクロ
マクシミ
ミニチュア
##iba
ロゴマーク
ミルウォーキー
オナニー
Hz
ねこ
わから
カノ
ゴロ
タイル
バラン
ペンタ
一歩
人野
合図
寺山
山岡
林家
気質
汚職
洋上
湖北
生後
花子
表せる
送付
部部
##PL
##置き
打ち破
小田急
兼ね備
コミュニケーションズ
女学院
モニタ
セクハラ
メドレー
一転し
プライバシー
イスタンブール
GG
Tor
おろし
ウリ
ガッツ
ギー
ブリスト
ベンチャー
ミール
ミゲル
ロンド
ロイス
一躍
予知
人為
包ん
包み
化改
埋める
植田
溶液
相まっ
空調
竹書
至近
豊前
躍進
遷移
須磨
頭角
##ネア
##とし
##使い
##抜か
##狩り
ステアリング
##ump
##グラフィー
##チュード
comp
##ather
成り立つ
Engine
エディンバラ
GHz
List
Mak
クウェ
コペン
ナガ
パティ
ヘルス
ホーリー
ムーブ
ラッピング
ロザ
一面
前世
助力
呉服
安井
復員
思惑
或い
所収
生える
症例
衆院
財源
踊っ
軍令
転戦
遊牧
防犯
##アフ
##残っ
コンプ
同時に
##ジャーズ
なんか
ブレーメン
##UDIO
Joseph
Du
Hello
Way
オク
コリンズ
ミク
メラ
ラッパー
偽造
再演
別所
同線
園田
常駐
年次
府警
振舞
新年
毛沢
湯沢
祭礼
禁煙
自粛
速やか
進駐
野原
隠岐
##リサーチ
##ホワイト
##ラップ
##ピード
##ちこ
##ンドゥ
フィード
##スタート
持ち込み
ゴールキーパー
富士山
フラツィオーネ
巻き込ん
ラテンアメリカ
もしばしば
##UTO
かぶっ
カンザスシティ
doi
バーナード
SUMMER
 ■
いとう
おっ
クトゥ
ラビ
リソース
不通
争わ
伝染
勤労
同党
国造
学説
寺内
慶喜
手腕
抜粋
東村
港町
玉置
用具
群島
豆腐
近距
雇っ
##リックス
##ニヤ
##タマ
##ングローブ
##ines
Produ
ホワイトハウス
ケンカ
オカルト
Collection
JAL
TT
おる
らく
カカ
ネバダ
モア
下士
主観
井伊
再出
地頭
執る
増発
大軍
大爆
宿場
密輸
手形
放り
楽しく
橋上
欠かせ
気管
津駅
深谷
準男
科教
粉末
臭い
西岸
転覆
都督
長屋
開基
##ジスト
##あき
##開始
##福寺
##led
サンリオ
ローラー
##VEN
##raft
ベイカー
マグネ
ウォーレン
Research
Olympedia
本記事
Dep
HERO
HAPP
かっ
がかっ
くじ
たて
ウシ
オウ
ダグ
ドリー
ホフマン
レックス
優し
単装
堪能
変則
嫌気
専売
戦勝
正宗
浙江
湯浅
硬い
童謡
老院
薨去
貸与
遺し
重巡
##ique
##パイロット
##コイ
##ハーフ
##ぶれ
##ツカ
##出せ
##路線
##去り
##ステッド
フィア
フィルター
ニューイングランド
##hed
フェラ
スポーツカー
飛び降り
クロスオーバー
アレクサンドリア
公明党
FOX
Battle
Every
Jul
Mov
いざ
そり
つぼ
とらえ
めて
ペーター
伸ばし
優れる
全裸
宴会
市史
悪事
投降
数量
新世紀
本流
武雄
浦安
生死
用機
諸語
願う
館所
##ミノ
##マック
##恵子
##ターニュ
アルタ
受け止め
ブルゴーニュ
##oth
ファイアー
##ヴォー
エイベックス
かわいい
アクションゲーム
ドローン
ミステリ
積み重
東日本大震
Ha
なだ
アノ
セクション
ダルマ
ハロン
バートン
ポプラ
マロ
レギュ
久慈
分譲
動植
厳重
台南
国司
大理
安堵
官庁
引か
彷彿
彼と
心不
星帯
曳航
本陣
正反
法規
渋沢
減らし
焼く
独奏
球体
生配
皐月
真澄
総武
被り
西線
遠州
酒田
重機
鉄人
静香
黒海
##リバー
##ラウンド
##ポット
##ぶろ
プロバスケットボール
##シュヴァ
ストー
##テンポ
ヴァンパイア
##ニングラード
##ヴェイ
##スコープ
カリフ
ブラックホール
##ウォーク
##ニュメント
##ブレイン
ニュート
ゲイリー
ハイスクール
Richard
シンポジウム
Fut
Key
きよ
リーマン
丸い
交替
会編
低速
先手
初舞台
南山
字章
手作り
投合
抜か
改易
晒さ
課金
鉄拳
長嶋
除名
##チックス
##プシー
##ポスト
##my
##ランズ
に対応
ブラジ
オリバー
ウェイト
ジュール
##キュラム
落ち込ん
長い間
##iana
HDD
Box
HMS
ガウ
ボーナ
一子
会戦
儒学
内政
哲郎
嗜好
岩瀬
干支
応える
悪かっ
矢島
笑福
約半
花粉
賛否
軍務
転勤
返却
##ニッツ
##ポタ
##こい
##去る
##ーステ
アルフォンソ
##クトン
クラフト
##omo
付け加
グラハム
ひとつと
##プレミア
##ODE
BOOK
よしも
Press
気象庁
ダイナマイト
カロリー
生年月
##ritic
イブニング
ノルマンディー
まこと
Bur
IW
IL
car
love
だき
ガチャ
ニッケル
ポテン
参道
外す
州選
得ず
暖房
本宮
林道
沈め
直立
神仏
租税
空い
若宮
裏切っ
諸葛
講道
賀市
重度
金賞
防署
駅番
##くみ
##ごく
##ディッシュ
##ンダント
ユニバース
##ago
##IC間
キャンディ
トップクラス
なんば
ウィキソース
大和田
##eek
##アドベンチャー
マキノ
リハビリテーション
コペンハーゲン
FK
めちゃ
コブ
コブラ
コメディア
コレクター
フランドル
ボナ
リップ
ロバー
何事
公害
叫ん
右肩
学内
孵化
尼子
局面
帝京
帯域
延岡
教訓
散ら
本艦
枚方
桜田
氷川
疫病
白く
相場
笠原
給水
聖公
脇役
船内
解け
軍医
雇い
黒く
##マイン
##バリュ
##gg
##こん
##がけ
##ターミナル
##ースクール
フィオ
##フィギュ
バーミ
##ハンデ
ラグナ
Def
ボディカラー
アベンジャーズ
Perf
オセアニア
エグゼクティブ
プトレマイオス
BP
IF
MBC
たほか
のう
カシ
ムード
リブ
レム
一流
勘定
壬生
大日
大町
実効
屋号
心情
拳法
掴み
救難
昇叙
書状
本庁
津久
混成
清和
無実
異形
痴漢
禁断
経典
脚色
落札
記入
説く
走ら
隣人
##ハザード
##津子
##用い
##ティカ
##ince
##ette
##ility
##チェック
すべき
カルデラ
乗り入れる
なかよし
##AMI
##ISH
ガンバ
フットボールリーグ
アイデンティティ
LG
Mir
Ros
SOL
cont
グッ
ヘラク
リグ
低かっ
国出
境遇
巨体
損壊
新線
検挙
派出
紅茶
足場
電脳
音泉
食肉
高評
##シールド
##ng
##ゴロド
##ダイン
##ストレーション
プロット
なりつつ
##レイド
##スタイン
##スタリング
##ジャケット
すぐに
ルイーズ
##AKI
マリアナ
##awai
ART
ニーダー
##プロデュース
張本人
アリストテレス
エクアドル
RB
SI
TK
イベリア
シチュエーション
ヒマラ
ペガ
ミッチェル
リンチ
レスター
三条
交わし
位階
前野
北島
吹く
士族
宗派
定額
小数
懐疑
推挙
散布
死闘
沈着
科博
素性
綴っ
脚部
試し
##VI
タイタン
産業省
イメージキャラクター
ひとつとして
メンフィス
モンテネグロ
チャイナ
アクセサリー
ピョートル
WHO
kHz
がめ
ひで
イデオ
クセ
ソクラテス
ムサ
モザイク
ヤス
ロナルド
一応
七つ
不意
中庭
亀裂
俳人
全仏
和尚
商科
塚本
士気
大腸
小鳥
愛犬
拒ん
死別
殺意
現す
相生
確執
羽毛
習志
西小
触発
貴子
道線
長大
陸戦
雄一
##き出し
からくり
ウィンドウ
ジェンダー
スーパーヒーロー
プラモデル
シェーン
フラグ
オペレーター
イノベーション
ワトソン
God
Ka
Line
QB
Wik
うどん
よん
れれ
アストラ
キク
ジロ
バシ
ピレ
ペロ
ワーグナー
中距
人情
増補
多量
宗像
寛容
届出
市地
感知
村域
水溶
渋川
現世
発火
祖と
細分
要約
配役
##ベツ
##ジマ
##ウエスト
乗り込み
乗り越え
いわく
##ブリテン
##キャンプ
##コミュニケーションズ
Festival
キヤノン
##シェヴィキ
Camp
Hon
SQ
VT
one
sub
var
らしき
グルコ
コイ
バーンズ
マガ
ミナ
リセット
ロキ
ロベール
偽名
公然
凄ま
刃物
字体
完備
幻冬
掛かる
書体
歳没
殉職
皇紀
相鉄
純情
終身
花弁
表れ
誘っ
説話
負ける
追贈
逓信
頭上
飢饉
駅方
##ゴット
##ライセンス
取り込み
コントラ
メモリー
##プレーヤー
ツイート
セグンダ
Fin
